{
  "version": "1.0",
  "truncation": null,
  "padding": null,
  "added_tokens": [
    {
      "id": 0,
      "content": "[UNK]",
      "single_word": false,
      "lstrip": false,
      "rstrip": false,
      "normalized": false,
      "special": true
    },
    {
      "id": 1,
      "content": "<s>",
      "single_word": false,
      "lstrip": false,
      "rstrip": false,
      "normalized": false,
      "special": true
    },
    {
      "id": 2,
      "content": "</s>",
      "single_word": false,
      "lstrip": false,
      "rstrip": false,
      "normalized": false,
      "special": true
    },
    {
      "id": 3,
      "content": "[SEP]",
      "single_word": false,
      "lstrip": false,
      "rstrip": false,
      "normalized": false,
      "special": true
    },
    {
      "id": 4,
      "content": "[PAD]",
      "single_word": false,
      "lstrip": false,
      "rstrip": false,
      "normalized": false,
      "special": true
    },
    {
      "id": 5,
      "content": "[MASK]",
      "single_word": false,
      "lstrip": false,
      "rstrip": false,
      "normalized": false,
      "special": true
    }
  ],
  "normalizer": {
    "type": "NFD"
  },
  "pre_tokenizer": {
    "type": "Sequence",
    "pretokenizers": [
      {
        "type": "Digits",
        "individual_digits": false
      },
      {
        "type": "ByteLevel",
        "add_prefix_space": true,
        "trim_offsets": true,
        "use_regex": true
      }
    ]
  },
  "post_processor": null,
  "decoder": null,
  "model": {
    "type": "BPE",
    "dropout": null,
    "unk_token": "[UNK]",
    "continuing_subword_prefix": null,
    "end_of_word_suffix": null,
    "fuse_unk": false,
    "byte_fallback": false,
    "ignore_merges": false,
    "vocab": {
      "[UNK]": 0,
      "<s>": 1,
      "</s>": 2,
      "[SEP]": 3,
      "[PAD]": 4,
      "[MASK]": 5,
      "!": 6,
      "\"": 7,
      "#": 8,
      "$": 9,
      "%": 10,
      "&": 11,
      "'": 12,
      "(": 13,
      ")": 14,
      "*": 15,
      "+": 16,
      ",": 17,
      "-": 18,
      ".": 19,
      "/": 20,
      "0": 21,
      "1": 22,
      "2": 23,
      "3": 24,
      "4": 25,
      "5": 26,
      "6": 27,
      "7": 28,
      "8": 29,
      "9": 30,
      ":": 31,
      ";": 32,
      "<": 33,
      "=": 34,
      ">": 35,
      "?": 36,
      "@": 37,
      "A": 38,
      "B": 39,
      "C": 40,
      "D": 41,
      "E": 42,
      "F": 43,
      "G": 44,
      "H": 45,
      "I": 46,
      "J": 47,
      "K": 48,
      "L": 49,
      "M": 50,
      "N": 51,
      "O": 52,
      "P": 53,
      "Q": 54,
      "R": 55,
      "S": 56,
      "T": 57,
      "U": 58,
      "V": 59,
      "W": 60,
      "X": 61,
      "Y": 62,
      "Z": 63,
      "[": 64,
      "\\": 65,
      "]": 66,
      "^": 67,
      "_": 68,
      "`": 69,
      "a": 70,
      "b": 71,
      "c": 72,
      "d": 73,
      "e": 74,
      "f": 75,
      "g": 76,
      "h": 77,
      "i": 78,
      "j": 79,
      "k": 80,
      "l": 81,
      "m": 82,
      "n": 83,
      "o": 84,
      "p": 85,
      "q": 86,
      "r": 87,
      "s": 88,
      "t": 89,
      "u": 90,
      "v": 91,
      "w": 92,
      "x": 93,
      "y": 94,
      "z": 95,
      "{": 96,
      "|": 97,
      "}": 98,
      "~": 99,
      "¡": 100,
      "¢": 101,
      "£": 102,
      "¤": 103,
      "¥": 104,
      "¦": 105,
      "§": 106,
      "¨": 107,
      "©": 108,
      "ª": 109,
      "«": 110,
      "¬": 111,
      "®": 112,
      "¯": 113,
      "°": 114,
      "±": 115,
      "²": 116,
      "³": 117,
      "´": 118,
      "µ": 119,
      "¶": 120,
      "·": 121,
      "¸": 122,
      "¹": 123,
      "º": 124,
      "»": 125,
      "¼": 126,
      "½": 127,
      "¾": 128,
      "¿": 129,
      "Â": 130,
      "Ã": 131,
      "Ä": 132,
      "Å": 133,
      "Æ": 134,
      "Ç": 135,
      "È": 136,
      "É": 137,
      "Ê": 138,
      "Ë": 139,
      "Ì": 140,
      "Í": 141,
      "Î": 142,
      "Ï": 143,
      "Ð": 144,
      "Ñ": 145,
      "Ò": 146,
      "Ó": 147,
      "Ô": 148,
      "Õ": 149,
      "Ö": 150,
      "×": 151,
      "Ø": 152,
      "Ù": 153,
      "Ú": 154,
      "Û": 155,
      "Ü": 156,
      "Ý": 157,
      "Þ": 158,
      "ß": 159,
      "à": 160,
      "á": 161,
      "â": 162,
      "ã": 163,
      "ä": 164,
      "å": 165,
      "æ": 166,
      "ç": 167,
      "è": 168,
      "é": 169,
      "ê": 170,
      "í": 171,
      "î": 172,
      "ï": 173,
      "ð": 174,
      "ñ": 175,
      "ò": 176,
      "ó": 177,
      "ô": 178,
      "Ā": 179,
      "ā": 180,
      "Ă": 181,
      "ă": 182,
      "Ą": 183,
      "ą": 184,
      "Ć": 185,
      "ć": 186,
      "Ĉ": 187,
      "ĉ": 188,
      "Ċ": 189,
      "Ď": 190,
      "ď": 191,
      "Đ": 192,
      "đ": 193,
      "Ē": 194,
      "ē": 195,
      "Ĕ": 196,
      "ĕ": 197,
      "Ė": 198,
      "ė": 199,
      "Ę": 200,
      "ę": 201,
      "Ě": 202,
      "ě": 203,
      "ğ": 204,
      "Ġ": 205,
      "ġ": 206,
      "Ģ": 207,
      "ģ": 208,
      "Ĥ": 209,
      "ĥ": 210,
      "Ħ": 211,
      "ħ": 212,
      "Ĩ": 213,
      "ĩ": 214,
      "Ī": 215,
      "ī": 216,
      "Ĭ": 217,
      "ĭ": 218,
      "Į": 219,
      "į": 220,
      "İ": 221,
      "ı": 222,
      "Ĳ": 223,
      "ĳ": 224,
      "Ĵ": 225,
      "ĵ": 226,
      "Ķ": 227,
      "ķ": 228,
      "ĸ": 229,
      "Ĺ": 230,
      "ĺ": 231,
      "Ļ": 232,
      "ļ": 233,
      "Ľ": 234,
      "ľ": 235,
      "Ŀ": 236,
      "ŀ": 237,
      "Ł": 238,
      "ł": 239,
      "Ń": 240,
      "Ġo": 241,
      "Ġi": 242,
      "Ġs": 243,
      "at": 244,
      "nd": 245,
      "es": 246,
      "Ġw": 247,
      "or": 248,
      "en": 249,
      "Ġc": 250,
      "ng": 251,
      "ar": 252,
      "al": 253,
      "ou": 254,
      "Ġf": 255,
      "to": 256,
      "ed": 257,
      "Ġp": 258,
      "Ġb": 259,
      "ing": 260,
      "and": 261,
      "it": 262,
      "Ġm": 263,
      "Ġto": 264,
      "Ġand": 265,
      "as": 266,
      "Ġh": 267,
      "Ġof": 268,
      "Ġin": 269,
      "Ġd": 270,
      "ve": 271,
      "io": 272,
      "le": 273,
      "is": 274,
      "ic": 275,
      "ro": 276,
      "ion": 277,
      "Ġr": 278,
      "te": 279,
      "ne": 280,
      "ent": 281,
      "ac": 282,
      "il": 283,
      "Ġl": 284,
      "Ġe": 285,
      "Ġy": 286,
      "Ġco": 287,
      "ur": 288,
      "us": 289,
      "el": 290,
      "Ġg": 291,
      "et": 292,
      "ec": 293,
      "ĠI": 294,
      "Ġyou": 295,
      "ĠT": 296,
      "Ġis": 297,
      "nt": 298,
      "Ġfor": 299,
      "âĢ": 300,
      "ad": 301,
      "ĠS": 302,
      "rs": 303,
      "me": 304,
      "ly": 305,
      "hat": 306,
      "ĠA": 307,
      "ow": 308,
      "ĠC": 309,
      "ut": 310,
      "ay": 311,
      "id": 312,
      "tr": 313,
      "Ġn": 314,
      "ith": 315,
      "ig": 316,
      "ation": 317,
      "ot": 318,
      "Ġbe": 319,
      "Ġ1": 320,
      "ter": 321,
      "Ġon": 322,
      "mp": 323,
      "ab": 324,
      "Ġar": 325,
      "Ġwith": 326,
      "that": 327,
      "Ġthat": 328,
      "ol": 329,
      "ir": 330,
      "ch": 331,
      "os": 332,
      "Ġre": 333,
      "Ġ2": 334,
      "ver": 335,
      "ns": 336,
      "ĠM": 337,
      "ce": 338,
      "ag": 339,
      "ĠTh": 340,
      "Ġwh": 341,
      "ĠP": 342,
      "ess": 343,
      "ri": 344,
      "Ġpro": 345,
      "am": 346,
      "Ġit": 347,
      "ul": 348,
      "Ġal": 349,
      "Ġas": 350,
      "ĠB": 351,
      "ap": 352,
      "ke": 353,
      "ti": 354,
      "ate": 355,
      "Ġare": 356,
      "âĢĻ": 357,
      "ill": 358,
      "Ġ(": 359,
      "Ġst": 360,
      "Ġwe": 361,
      "ĠW": 362,
      "Ġ.": 363,
      "ai": 364,
      "est": 365,
      "pe": 366,
      "em": 367,
      "Ġor": 368,
      "Ġu": 369,
      "Ġt": 370,
      "ĠD": 371,
      "om": 372,
      "ĠH": 373,
      "ĠF": 374,
      "oo": 375,
      "ave": 376,
      "Ġse": 377,
      "ĠThe": 378,
      "Ġca": 379,
      "Ġat": 380,
      "ĠR": 381,
      "Ġne": 382,
      "ers": 383,
      "Ġex": 384,
      "qu": 385,
      "igh": 386,
      "ct": 387,
      "Ġhe": 388,
      "ĠL": 389,
      "Ġsh": 390,
      "Ġv": 391,
      "his": 392,
      "Ġyour": 393,
      "if": 394,
      "ity": 395,
      "Ġtr": 396,
      "ant": 397,
      "ld": 398,
      "Ġch": 399,
      "rom": 400,
      "ment": 401,
      "Ġso": 402,
      "ort": 403,
      "ĠG": 404,
      "ĠE": 405,
      "Ġsu": 406,
      "Ġma": 407,
      "ore": 408,
      "Ġhave": 409,
      "Ġcan": 410,
      "ĠN": 411,
      "Ġthis": 412,
      "Ġus": 413,
      "Ġfrom": 414,
      "Ġ,": 415,
      "ny": 416,
      "Ġde": 417,
      "ive": 418,
      "Ġdo": 419,
      "ect": 420,
      "Ġwas": 421,
      "Ġby": 422,
      "art": 423,
      "Ġwill": 424,
      "ist": 425,
      "un": 426,
      "Ġnot": 427,
      "Ġac": 428,
      "lo": 429,
      "ight": 430,
      "Ġpr": 431,
      "ĠO": 432,
      "Ġfi": 433,
      "Ġle": 434,
      "ain": 435,
      "ard": 436,
      "Ġli": 437,
      "ure": 438,
      "out": 439,
      "nce": 440,
      "ies": 441,
      "ud": 442,
      "all": 443,
      "Ġ3": 444,
      "um": 445,
      "Ġ20": 446,
      "Ġpe": 447,
      "hi": 448,
      "od": 449,
      "li": 450,
      "ally": 451,
      "ĠâĢ": 452,
      "Ġab": 453,
      "Ġpl": 454,
      "ide": 455,
      "Ġk": 456,
      "Ġwor": 457,
      "ould": 458,
      "Ġ-": 459,
      "Ġall": 460,
      "age": 461,
      "ĠJ": 462,
      "Ġj": 463,
      "ia": 464,
      "eat": 465,
      "Ġlo": 466,
      "Ġcomp": 467,
      "gh": 468,
      "ee": 469,
      "av": 470,
      "ous": 471,
      "Ġen": 472,
      "ack": 473,
      "op": 474,
      "Ġsp": 475,
      "act": 476,
      "ear": 477,
      "so": 478,
      "ions": 479,
      "ice": 480,
      "Ġ)": 481,
      "able": 482,
      "fe": 483,
      "Ġad": 484,
      "ew": 485,
      "king": 486,
      "ha": 487,
      "Ġgr": 488,
      "Ġhas": 489,
      "ell": 490,
      "our": 491,
      "ast": 492,
      "ust": 493,
      "ost": 494,
      "ey": 495,
      "ial": 496,
      "Ġ0": 497,
      "im": 498,
      "ich": 499,
      "ra": 500,
      "be": 501,
      "any": 502,
      "Ġte": 503,
      "ough": 504,
      "Th": 505,
      "Ġme": 506,
      "Ġres": 507,
      "ff": 508,
      "app": 509,
      "ge": 510,
      "ite": 511,
      "ks": 512,
      "Ġti": 513,
      "Ġup": 514,
      "nc": 515,
      "ound": 516,
      "Ġbut": 517,
      "Ġout": 518,
      "ĠU": 519,
      "iv": 520,
      "hing": 521,
      "ys": 522,
      "Ġcom": 523,
      "pp": 524,
      "iz": 525,
      "very": 526,
      "fer": 527,
      "Ġour": 528,
      "Ġ4": 529,
      "orm": 530,
      "'s": 531,
      "The": 532,
      "hr": 533,
      "ence": 534,
      "Ġmore": 535,
      "eir": 536,
      "ated": 537,
      "heir": 538,
      "Ġtheir": 539,
      "ood": 540,
      "Ġone": 541,
      "ĠK": 542,
      "Ġ5": 543,
      "ang": 544,
      "hey": 545,
      "ail": 546,
      "ach": 547,
      "ens": 548,
      "per": 549,
      "ll": 550,
      "Ġthey": 551,
      "gr": 552,
      "Ġcont": 553,
      "ans": 554,
      "ĠY": 555,
      "ace": 556,
      "ase": 557,
      "ations": 558,
      "Ġdis": 559,
      "ep": 560,
      "Ġwhich": 561,
      "Ġqu": 562,
      "ber": 563,
      "Ġâ": 564,
      "Ġrec": 565,
      "ning": 566,
      "uct": 567,
      "ue": 568,
      "ents": 569,
      "Ġinc": 570,
      "Ġmy": 571,
      "Ġsa": 572,
      "ome": 573,
      "ance": 574,
      "Ġcr": 575,
      "ass": 576,
      "ical": 577,
      "Ġmo": 578,
      "ib": 579,
      "ĠV": 580,
      "Ġabout": 581,
      "Ġ201": 582,
      "nal": 583,
      "ine": 584,
      "de": 585,
      "Ġper": 586,
      "ry": 587,
      "ĠIn": 588,
      "han": 589,
      "Ġalso": 590,
      "are": 591,
      "st": 592,
      "rv": 593,
      "ary": 594,
      "Ġgo": 595,
      "form": 596,
      "ese": 597,
      "Ġcl": 598,
      "ose": 599,
      "Ġtime": 600,
      "Ġany": 601,
      "ition": 602,
      "Ġapp": 603,
      "Ġher": 604,
      "Ġot": 605,
      "Ġoth": 606,
      "cess": 607,
      "Ġthr": 608,
      "Ġno": 609,
      "mer": 610,
      "ish": 611,
      "pt": 612,
      "Ġev": 613,
      "ie": 614,
      "uc": 615,
      "nk": 616,
      "ors": 617,
      "ĠIt": 618,
      "Ġget": 619,
      "Ġsome": 620,
      "ays": 621,
      "oth": 622,
      "ount": 623,
      "ond": 624,
      "hen": 625,
      "Ġwho": 626,
      "Ġyear": 627,
      "Ġnew": 628,
      "aw": 629,
      "hem": 630,
      "Ġta": 631,
      "00": 632,
      "ign": 633,
      "ult": 634,
      "Ġcon": 635,
      "now": 636,
      "Ġimp": 637,
      "Ġcons": 638,
      "Ġpart": 639,
      "ip": 640,
      "Ġbr": 641,
      "ub": 642,
      "Ġro": 643,
      "ĠCo": 644,
      "Ġ\"": 645,
      "Ġif": 646,
      "ick": 647,
      "ene": 648,
      "Ġneed": 649,
      "Ġothe": 650,
      "Ġother": 651,
      "Ġstr": 652,
      "ness": 653,
      "ook": 654,
      "Ġinter": 655,
      "Ġ6": 656,
      "Ġhis": 657,
      "ark": 658,
      "Ġthem": 659,
      "ms": 660,
      "ho": 661,
      "Ġdes": 662,
      "ord": 663,
      "Ġover": 664,
      "Ġwhen": 665,
      "Ġbeen": 666,
      "ind": 667,
      "Ġlike": 668,
      "ade": 669,
      "owe": 670,
      "og": 671,
      "ĠâĪ": 672,
      "Ġun": 673,
      "vi": 674,
      "ĠWe": 675,
      "co": 676,
      "Ġwhat": 677,
      "Ġag": 678,
      "Ġhel": 679,
      "Ġuse": 680,
      "oc": 681,
      "ild": 682,
      "âĢĿ": 683,
      "ĠThis": 684,
      "ely": 685,
      "Ġthan": 686,
      "Ġexp": 687,
      "Ġwould": 688,
      "ath": 689,
      "nde": 690,
      "lic": 691,
      "Ġoff": 692,
      "Ġsc": 693,
      "Ġits": 694,
      "Ġknow": 695,
      "rst": 696,
      "les": 697,
      "Ġam": 698,
      "Ġwork": 699,
      "ory": 700,
      "ĠSt": 701,
      "Ġwer": 702,
      "na": 703,
      "Ġfr": 704,
      "Ġjust": 705,
      "Ġinto": 706,
      "Ġ19": 707,
      "Ġprov": 708,
      "oi": 709,
      "Ġwere": 710,
      "lud": 711,
      "Ġ7": 712,
      "Ġbec": 713,
      "Ġhad": 714,
      "use": 715,
      "ile": 716,
      "Ġrep": 717,
      "own": 718,
      "Ġadd": 719,
      "ual": 720,
      "ĠâĢľ": 721,
      "lect": 722,
      "Ġ8": 723,
      "Ġmake": 724,
      "Ġtw": 725,
      "Ġmay": 726,
      "mo": 727,
      "Ġhelp": 728,
      "ĠHe": 729,
      "af": 730,
      "Ġsi": 731,
      "ĠÎ": 732,
      "ame": 733,
      "enc": 734,
      "ates": 735,
      "eth": 736,
      "Ġins": 737,
      "ople": 738,
      "we": 739,
      "ful": 740,
      "Ġ10": 741,
      "ting": 742,
      "Ġbu": 743,
      "Ġserv": 744,
      "bs": 745,
      "Ġprod": 746,
      "Ġhow": 747,
      "air": 748,
      "Ġonly": 749,
      "low": 750,
      "row": 751,
      "ater": 752,
      "Ġman": 753,
      "Ġwell": 754,
      "Ġbet": 755,
      "Ġinclud": 756,
      "Ġfirst": 757,
      "Ġhigh": 758,
      "ak": 759,
      "ft": 760,
      "ating": 761,
      "one": 762,
      "old": 763,
      "Ġmost": 764,
      "Ġthrough": 765,
      "ned": 766,
      "Ġpeople": 767,
      "red": 768,
      "Ġ9": 769,
      "ices": 770,
      "Ġdif": 771,
      "ise": 772,
      "ner": 773,
      "Ġevery": 774,
      "tive": 775,
      "ons": 776,
      "ress": 777,
      "ĠâĢĵ": 778,
      "..": 779,
      "hese": 780,
      "ma": 781,
      "ities": 782,
      "Ġ=": 783,
      "Ġthese": 784,
      "nes": 785,
      ").": 786,
      "Ġsee": 787,
      "ject": 788,
      "Ġback": 789,
      "Ġwhe": 790,
      "Ġ:": 791,
      "als": 792,
      "Ġsupp": 793,
      "Ġmi": 794,
      "ts": 795,
      "Ġvery": 796,
      "Ġtwo": 797,
      "Ġind": 798,
      "Ġwant": 799,
      "Ġdec": 800,
      "Ġpri": 801,
      "Ġcar": 802,
      "ments": 803,
      "Ġrel": 804,
      "Ġcol": 805,
      "Ġreg": 806,
      "nder": 807,
      "ics": 808,
      "ters": 809,
      "ĠYou": 810,
      "ps": 811,
      "Ġpos": 812,
      "ings": 813,
      "Ġfe": 814,
      "'t": 815,
      "Ġmod": 816,
      "ures": 817,
      "itt": 818,
      "Ġstud": 819,
      "Ġloc": 820,
      "yste": 821,
      "no": 822,
      "ility": 823,
      "ble": 824,
      "Ġset": 825,
      "Ġwher": 826,
      "iness": 827,
      "Ġspec": 828,
      "Ġwhere": 829,
      "Ġcomm": 830,
      "Ġke": 831,
      "Ġinv": 832,
      "ular": 833,
      "ily": 834,
      "oint": 835,
      "uch": 836,
      "day": 837,
      "xt": 838,
      "Ġaf": 839,
      "ational": 840,
      "alt": 841,
      "ange": 842,
      "ead": 843,
      "Ġ/": 844,
      "Ġmany": 845,
      "Ġgood": 846,
      "res": 847,
      "ased": 848,
      "Ġacc": 849,
      "iss": 850,
      "peri": 851,
      "Ġbus": 852,
      "ife": 853,
      "fore": 854,
      "ible": 855,
      "ton": 856,
      "ool": 857,
      "Ġthen": 858,
      "ian": 859,
      "ire": 860,
      "ower": 861,
      "der": 862,
      "ved": 863,
      "ict": 864,
      "vers": 865,
      "Ġway": 866,
      "ong": 867,
      "end": 868,
      "amp": 869,
      "ĠCh": 870,
      "ific": 871,
      "Ġcou": 872,
      "Ġafter": 873,
      "ause": 874,
      "ative": 875,
      "Ġshould": 876,
      "ener": 877,
      "ari": 878,
      "velo": 879,
      "formation": 880,
      "Ġdiffer": 881,
      "Ġsuch": 882,
      "ement": 883,
      "elf": 884,
      "Ġyears": 885,
      "Ġcould": 886,
      "wn": 887,
      "au": 888,
      "Ġpers": 889,
      "Ġeven": 890,
      "Ġeff": 891,
      "Ġfind": 892,
      "line": 893,
      "ĠAs": 894,
      "ĠâĪĴ": 895,
      "Ġsec": 896,
      "ga": 897,
      "Ġbest": 898,
      "Ġnow": 899,
      "ĠPro": 900,
      "Ġbo": 901,
      "Ġproduct": 902,
      "se": 903,
      "ci": 904,
      "ĠRe": 905,
      "ĠSh": 906,
      "rt": 907,
      "Ġrequ": 908,
      "Ġgreat": 909,
      "its": 910,
      "uring": 911,
      "Ġdown": 912,
      "Ġhome": 913,
      "Ġstart": 914,
      "urr": 915,
      "Ġgu": 916,
      "ional": 917,
      "ĠIf": 918,
      "ron": 919,
      "fi": 920,
      "Ġ&": 921,
      "Ġexperi": 922,
      "Ġtrans": 923,
      "ves": 924,
      "Ġsyste": 925,
      "Ġop": 926,
      "Ġplay": 927,
      "Ġ200": 928,
      "Ġ+": 929,
      "Ġright": 930,
      "ains": 931,
      "Ġmuch": 932,
      "Ġav": 933,
      "Ġass": 934,
      "ty": 935,
      "atch": 936,
      "Ġday": 937,
      "Ġsm": 938,
      "Ġused": 939,
      "Ġfl": 940,
      "olog": 941,
      "Ġshe": 942,
      "ĠUn": 943,
      "Ġim": 944,
      "Ġbusiness": 945,
      "ug": 946,
      "Ġpre": 947,
      "),": 948,
      "mi": 949,
      "pr": 950,
      "Ġlong": 951,
      "ake": 952,
      "aut": 953,
      "Ġpar": 954,
      "Ġtake": 955,
      "ĠGr": 956,
      "Ġthing": 957,
      "Ġthi": 958,
      "velop": 959,
      "Ġshow": 960,
      "gan": 961,
      "ata": 962,
      "Ġsch": 963,
      "ler": 964,
      "Ġdon": 965,
      "hough": 966,
      "ving": 967,
      "und": 968,
      "Ġinformation": 969,
      "ited": 970,
      "led": 971,
      "Ġbecause": 972,
      "Ġaw": 973,
      "aff": 974,
      "Ġtoo": 975,
      "ĠFor": 976,
      "anc": 977,
      "Ġbel": 978,
      "Ġhere": 979,
      "Ġsaid": 980,
      "ivers": 981,
      "up": 982,
      "Ġce": 983,
      "br": 984,
      "ck": 985,
      "Ġfol": 986,
      "Ġeach": 987,
      "ustr": 988,
      "Ġread": 989,
      "Ġfam": 990,
      "irect": 991,
      "ize": 992,
      "Ġcomple": 993,
      "gram": 994,
      "Ġact": 995,
      "Ġvis": 996,
      "ently": 997,
      "othe": 998,
      "ros": 999,
      "Ġperso": 1000,
      "Ġwr": 1001,
      "ven": 1002,
      "Ġmade": 1003,
      "Ġbl": 1004,
      "ets": 1005,
      "usto": 1006,
      "Ġdoes": 1007,
      "nn": 1008,
      "ages": 1009,
      "Ġmin": 1010,
      "Ġfun": 1011,
      "ward": 1012,
      "ĠÂ": 1013,
      "vel": 1014,
      "other": 1015,
      "Ġpres": 1016,
      "ull": 1017,
      "Ġ12": 1018,
      "omet": 1019,
      "ale": 1020,
      "ork": 1021,
      "Ġ[": 1022,
      "alth": 1023,
      "ica": 1024,
      "arge": 1025,
      "ually": 1026,
      "ethe": 1027,
      "ues": 1028,
      "Ġ%": 1029,
      "Ġbefore": 1030,
      "oy": 1031,
      "ether": 1032,
      "Ġdid": 1033,
      "aint": 1034,
      "Ġunder": 1035,
      "hose": 1036,
      "Ġbeing": 1037,
      "ape": 1038,
      "ĠAnd": 1039,
      "pend": 1040,
      "Ġhand": 1041,
      "Ġdifferent": 1042,
      "Ġform": 1043,
      "Ġend": 1044,
      "Ġ$": 1045,
      "Ġeas": 1046,
      "Ġthose": 1047,
      "Ġwee": 1048,
      "Ġsol": 1049,
      "ution": 1050,
      "Ġdesign": 1051,
      "Ġresp": 1052,
      "kes": 1053,
      "Ġpho": 1054,
      "ash": 1055,
      "Ġcall": 1056,
      "Ġworld": 1057,
      "Ġusing": 1058,
      "Ġmark": 1059,
      "In": 1060,
      "ĠAl": 1061,
      "ĠSe": 1062,
      "Ġmem": 1063,
      "Ġprovid": 1064,
      "Ġprocess": 1065,
      "Ġmed": 1066,
      "Ġdevelop": 1067,
      "Ġnum": 1068,
      "Ġval": 1069,
      "eld": 1070,
      "Ġlook": 1071,
      "ĠÏ": 1072,
      "ob": 1073,
      "Ġsub": 1074,
      "ouse": 1075,
      "ality": 1076,
      "Ġsur": 1077,
      "Ġlife": 1078,
      "Ġcor": 1079,
      "Ġsk": 1080,
      "ied": 1081,
      "urn": 1082,
      "Ġgener": 1083,
      "ney": 1084,
      "ween": 1085,
      "Ġart": 1086,
      "Ġed": 1087,
      "com": 1088,
      "aso": 1089,
      "lease": 1090,
      "nth": 1091,
      "Ġfollow": 1092,
      "Ġdri": 1093,
      "Ġwhile": 1094,
      "hip": 1095,
      "lish": 1096,
      "Ġadv": 1097,
      "az": 1098,
      "Ġsupport": 1099,
      "ction": 1100,
      "Ġcle": 1101,
      "gy": 1102,
      "ute": 1103,
      "Ġcusto": 1104,
      "tiv": 1105,
      "Ġtech": 1106,
      "ars": 1107,
      "We": 1108,
      "Ġsto": 1109,
      "Ġfree": 1110,
      "Ġbetween": 1111,
      "Ġaround": 1112,
      "Ġste": 1113,
      "ries": 1114,
      "Ġret": 1115,
      "Ġavail": 1116,
      "Ġ11": 1117,
      "Ġlove": 1118,
      "Ġresult": 1119,
      "Ġho": 1120,
      "Ġent": 1121,
      "Ġreally": 1122,
      "Ġlast": 1123,
      "pl": 1124,
      "ni": 1125,
      "ized": 1126,
      "Ġsame": 1127,
      "Ġpol": 1128,
      "arg": 1129,
      "tern": 1130,
      "Ġboth": 1131,
      "ren": 1132,
      "Ġob": 1133,
      "Ġown": 1134,
      "Ġem": 1135,
      "Ġappro": 1136,
      ".,": 1137,
      "This": 1138,
      "Ġtop": 1139,
      "view": 1140,
      "Ġcommun": 1141,
      "Ġpur": 1142,
      "Ġprof": 1143,
      "athe": 1144,
      "Ġvari": 1145,
      "iting": 1146,
      "Ġprogram": 1147,
      "hys": 1148,
      "ĠZ": 1149,
      "Ġlear": 1150,
      "Ġoffer": 1151,
      "Ġpost": 1152,
      "land": 1153,
      "tim": 1154,
      "Ġsystem": 1155,
      "Ġpla": 1156,
      "Ġpoint": 1157,
      "Ġlist": 1158,
      "Ġgiv": 1159,
      "ĠAr": 1160,
      "Ġdel": 1161,
      "ways": 1162,
      "Ġdisc": 1163,
      "Ġchild": 1164,
      "ient": 1165,
      "Ġ15": 1166,
      "aining": 1167,
      "Ġdata": 1168,
      "Ġty": 1169,
      "Ġplace": 1170,
      "ĠBr": 1171,
      "Ġloo": 1172,
      "ove": 1173,
      "ĠNew": 1174,
      "Ġteam": 1175,
      "eng": 1176,
      "ĠQ": 1177,
      "Ġ]": 1178,
      "Ġfound": 1179,
      "ason": 1180,
      "Ġcli": 1181,
      "Ġdi": 1182,
      "ĠMa": 1183,
      "Ġimport": 1184,
      "riend": 1185,
      "Ġavailable": 1186,
      "Ġpub": 1187,
      "ĠTr": 1188,
      "Ġter": 1189,
      "ĠTher": 1190,
      "Ġap": 1191,
      "Ġhim": 1192,
      "earch": 1193,
      "ins": 1194,
      "orth": 1195,
      "Ġthink": 1196,
      "Ġide": 1197,
      "Ġpartic": 1198,
      "Ġcount": 1199,
      "áħ": 1200,
      "áĦ": 1201,
      "aph": 1202,
      "Ġstill": 1203,
      "ring": 1204,
      "Ġ'": 1205,
      "Ġfeel": 1206,
      "Ġsomet": 1207,
      "Ġequ": 1208,
      "man": 1209,
      "truct": 1210,
      "Ġ18": 1211,
      "Ġdirect": 1212,
      "Ġinst": 1213,
      "Ġlot": 1214,
      "Ġx": 1215,
      "Ġlead": 1216,
      "Ġnumber": 1217,
      "Ġthough": 1218,
      "Ġcond": 1219,
      "Ġ).": 1220,
      "ety": 1221,
      "Ġprovide": 1222,
      "oup": 1223,
      "ling": 1224,
      "ants": 1225,
      "ĠAd": 1226,
      "ĠSp": 1227,
      "cc": 1228,
      "Ìģ": 1229,
      "ump": 1230,
      "Ġproject": 1231,
      "ural": 1232,
      "Ġposs": 1233,
      "Ġvi": 1234,
      "cri": 1235,
      "Ġcreat": 1236,
      "Ġclass": 1237,
      "Ġfew": 1238,
      "ying": 1239,
      "aving": 1240,
      "ĠBe": 1241,
      "Ġfeat": 1242,
      "ĠThere": 1243,
      "Ġservice": 1244,
      "Ġgoing": 1245,
      "Ġsimp": 1246,
      "Ġreal": 1247,
      "ittle": 1248,
      "eck": 1249,
      "ically": 1250,
      "ĠThey": 1251,
      "Ġred": 1252,
      "Ġdr": 1253,
      "ired": 1254,
      "ross": 1255,
      "Ġcompany": 1256,
      "nother": 1257,
      "bers": 1258,
      "ners": 1259,
      "Ġallow": 1260,
      "ĠSo": 1261,
      "ective": 1262,
      "Ġexc": 1263,
      "Ġwater": 1264,
      "uss": 1265,
      "net": 1266,
      "een": 1267,
      "Ġmarket": 1268,
      "Ġkeep": 1269,
      "ather": 1270,
      "Ġear": 1271,
      "Ġ30": 1272,
      "Ġcho": 1273,
      "Ġopen": 1274,
      "Ġexperience": 1275,
      "owever": 1276,
      "Ġhapp": 1277,
      "Ġpat": 1278,
      "ential": 1279,
      "Ġcurr": 1280,
      "Ġemp": 1281,
      "Ġbuild": 1282,
      "Ġfact": 1283,
      "Ġfil": 1284,
      "ital": 1285,
      "Ġproble": 1286,
      "que": 1287,
      "Ġmonth": 1288,
      "arch": 1289,
      "Ġthree": 1290,
      "Ġatt": 1291,
      "ĠEx": 1292,
      "ĠDe": 1293,
      "Ġinterest": 1294,
      "Ġstate": 1295,
      "Ġproper": 1296,
      "rol": 1297,
      "Ġorgan": 1298,
      "Ġcap": 1299,
      "min": 1300,
      "arm": 1301,
      "ĠBut": 1302,
      "ĠX": 1303,
      "Ġund": 1304,
      "bo": 1305,
      "Ġalways": 1306,
      "itch": 1307,
      "ology": 1308,
      "Ġperform": 1309,
      "Ġstand": 1310,
      "Ġmust": 1311,
      "fic": 1312,
      "Ġve": 1313,
      "Ġincluding": 1314,
      "Ġduring": 1315,
      "Ġcre": 1316,
      "Ġonline": 1317,
      "Ġlarge": 1318,
      "Ġfamily": 1319,
      "Ġhealth": 1320,
      "ĠCom": 1321,
      "ĠPl": 1322,
      "thing": 1323,
      "Ġwithout": 1324,
      "ah": 1325,
      "Ġpay": 1326,
      "fect": 1327,
      "ency": 1328,
      "Ġiss": 1329,
      "Ġorder": 1330,
      "Ġthings": 1331,
      "Ġet": 1332,
      "Ġbetter": 1333,
      "Ġlight": 1334,
      "nu": 1335,
      "ists": 1336,
      "Ġlittle": 1337,
      "rn": 1338,
      "Ġsmall": 1339,
      "ption": 1340,
      "ank": 1341,
      "Ġrece": 1342,
      "Ġplan": 1343,
      "ody": 1344,
      "ames": 1345,
      "Ġcost": 1346,
      "Ġrun": 1347,
      "ĠĊ": 1348,
      "istr": 1349,
      "Ġconti": 1350,
      "ĠTe": 1351,
      "ĠCl": 1352,
      "Ġes": 1353,
      "Ġoper": 1354,
      "Ġcome": 1355,
      "Ġmodel": 1356,
      "Ġconf": 1357,
      "Ġschool": 1358,
      "Ġsecond": 1359,
      "mber": 1360,
      "Ġfriend": 1361,
      "Ġlevel": 1362,
      "med": 1363,
      "Ġimportant": 1364,
      "Ġpass": 1365,
      "outh": 1366,
      "nter": 1367,
      "ĠNo": 1368,
      "Ġele": 1369,
      "loy": 1370,
      "ator": 1371,
      "ards": 1372,
      "Ġgrow": 1373,
      "ush": 1374,
      "ention": 1375,
      "Ġlet": 1376,
      "Ġsay": 1377,
      "gi": 1378,
      "Ġarea": 1379,
      "Ġquest": 1380,
      "Ġincr": 1381,
      "Ġservices": 1382,
      "ker": 1383,
      "Ġsure": 1384,
      "con": 1385,
      "Ġconside": 1386,
      "Ġnext": 1387,
      "Ġfin": 1388,
      "ours": 1389,
      "Ġfull": 1390,
      "Ġblo": 1391,
      "Ġcare": 1392,
      "Ġwithi": 1393,
      "Ġwithin": 1394,
      "Ġsit": 1395,
      "orts": 1396,
      "Ġroom": 1397,
      "Ġsign": 1398,
      "urt": 1399,
      "Ġable": 1400,
      "ĠTo": 1401,
      "Ġtechn": 1402,
      "ately": 1403,
      "Ġincre": 1404,
      "Ġsince": 1405,
      "less": 1406,
      "ĠPe": 1407,
      "mers": 1408,
      "ph": 1409,
      "ared": 1410,
      "tend": 1411,
      "Ġmat": 1412,
      "Ġgive": 1413,
      "ially": 1414,
      "load": 1415,
      "alk": 1416,
      "ier": 1417,
      "Ġput": 1418,
      "iversity": 1419,
      "It": 1420,
      "ization": 1421,
      "ree": 1422,
      "another": 1423,
      "cial": 1424,
      "Ġaccess": 1425,
      "Ġpower": 1426,
      "Ġspecial": 1427,
      "Ġanother": 1428,
      "uce": 1429,
      "Ġapplic": 1430,
      "Ġaddition": 1431,
      "Ġphoto": 1432,
      "gg": 1433,
      "Ġopp": 1434,
      "mit": 1435,
      "Ġsomething": 1436,
      "Ġextr": 1437,
      "Ġcours": 1438,
      "Ġwebs": 1439,
      "Ġrem": 1440,
      "ĠDo": 1441,
      "read": 1442,
      "ER": 1443,
      "ision": 1444,
      "!!": 1445,
      "Ġmight": 1446,
      "ral": 1447,
      "ability": 1448,
      "ĠLe": 1449,
      "Ġbig": 1450,
      "ten": 1451,
      "Ġhard": 1452,
      "oss": 1453,
      "Ġpi": 1454,
      "rong": 1455,
      "Ġ16": 1456,
      "Ġcase": 1457,
      "nit": 1458,
      "ann": 1459,
      "work": 1460,
      "Ġtim": 1461,
      "ense": 1462,
      "If": 1463,
      "ained": 1464,
      "ĠCol": 1465,
      "Ġ13": 1466,
      "Ġunders": 1467,
      "Ġview": 1468,
      "Ġspe": 1469,
      "Ġinf": 1470,
      "room": 1471,
      "ases": 1472,
      "Ġbook": 1473,
      "Ġwi": 1474,
      "joy": 1475,
      "Ġ14": 1476,
      "ious": 1477,
      "ĠWh": 1478,
      "Ġz": 1479,
      "Ġinvest": 1480,
      "ane": 1481,
      "Ġweek": 1482,
      "Ġdet": 1483,
      "Ġgame": 1484,
      "Ġmus": 1485,
      "Ġpresent": 1486,
      "ature": 1487,
      "Ġold": 1488,
      "pos": 1489,
      "mon": 1490,
      "ccess": 1491,
      "ivid": 1492,
      "tand": 1493,
      "Ġint": 1494,
      "Ġ000": 1495,
      "ĠAmer": 1496,
      "Ġhead": 1497,
      "Ġrest": 1498,
      "Ġless": 1499,
      "Ġdays": 1500,
      "Ġ100": 1501,
      "ĠIs": 1502,
      "ĠComp": 1503,
      "Ġlocal": 1504,
      "Ġsite": 1505,
      "Ġbas": 1506,
      "Ġ25": 1507,
      "Ġquality": 1508,
      "ortun": 1509,
      "ple": 1510,
      "ted": 1511,
      "ax": 1512,
      "oon": 1513,
      "Ġpo": 1514,
      "Ġworking": 1515,
      "ences": 1516,
      "nks": 1517,
      "ls": 1518,
      "tom": 1519,
      "Ġprofess": 1520,
      "Ġconce": 1521,
      "agement": 1522,
      "Ġref": 1523,
      "ident": 1524,
      "ior": 1525,
      "vern": 1526,
      "Ġpop": 1527,
      "ĠJo": 1528,
      "Ġnever": 1529,
      "Ġperson": 1530,
      "Ġtest": 1531,
      "Ġfac": 1532,
      "Ġsw": 1533,
      "Ġgot": 1534,
      "ĠAll": 1535,
      "Ġresearch": 1536,
      "Ġsl": 1537,
      "ulti": 1538,
      "Ġeng": 1539,
      "ware": 1540,
      "Ġgl": 1541,
      "uck": 1542,
      "ric": 1543,
      "lection": 1544,
      "Ġmeet": 1545,
      "of": 1546,
      "Ġfood": 1547,
      "ands": 1548,
      "Ġsing": 1549,
      "hor": 1550,
      "Ġstudents": 1551,
      "Ġtreat": 1552,
      "Ġexpl": 1553,
      "Ġpract": 1554,
      "Ġimpro": 1555,
      "Ġlooking": 1556,
      "Ġline": 1557,
      "ĠChr": 1558,
      "Ġproducts": 1559,
      "ĠAt": 1560,
      "ethod": 1561,
      "Ġtoday": 1562,
      "ised": 1563,
      "ured": 1564,
      "ateri": 1565,
      "Ġcomplete": 1566,
      "Ġmaking": 1567,
      "ĠInd": 1568,
      "ĠIns": 1569,
      "ĠFi": 1570,
      "ern": 1571,
      "ĠCa": 1572,
      "Ġcover": 1573,
      "Ġmet": 1574,
      "Ġconne": 1575,
      "ĠShe": 1576,
      "wh": 1577,
      "iver": 1578,
      "Ġaff": 1579,
      "equ": 1580,
      "ĠOn": 1581,
      "ĠWith": 1582,
      "âĪ": 1583,
      "Ġchange": 1584,
      "ĠPr": 1585,
      "ĠSch": 1586,
      "Ġpublic": 1587,
      "ĠMe": 1588,
      "Ġevent": 1589,
      "ission": 1590,
      "ails": 1591,
      "Ġeasy": 1592,
      "Ġunderstand": 1593,
      "itions": 1594,
      "Ġbased": 1595,
      ".\"": 1596,
      "Ġ17": 1597,
      "Ġprote": 1598,
      "oot": 1599,
      "orn": 1600,
      "ird": 1601,
      "Ġappe": 1602,
      "aper": 1603,
      "Ġindustr": 1604,
      "Ġbre": 1605,
      "let": 1606,
      "Ġunt": 1607,
      "Ġexamp": 1608,
      "Ġneeds": 1609,
      "enter": 1610,
      "Ġchang": 1611,
      "aster": 1612,
      "Ġalong": 1613,
      "Ġair": 1614,
      "Ġactiv": 1615,
      "Ġenjoy": 1616,
      "ĠâĢĺ": 1617,
      "rop": 1618,
      "Ġwebsite": 1619,
      "irt": 1620,
      "Ġnon": 1621,
      "ĠAf": 1622,
      "aring": 1623,
      "anal": 1624,
      "ills": 1625,
      "ism": 1626,
      "Ġchar": 1627,
      "Ġagain": 1628,
      "Ġsever": 1629,
      "Ġstor": 1630,
      "ably": 1631,
      "gether": 1632,
      "ĠUS": 1633,
      "Ġ),": 1634,
      "Ġ|": 1635,
      "ĠOr": 1636,
      "Ġlaw": 1637,
      "Ġdev": 1638,
      "Ġcontrol": 1639,
      "Ġchildren": 1640,
      "ĠAmerica": 1641,
      "Ġnet": 1642,
      "hn": 1643,
      "Ġau": 1644,
      "gin": 1645,
      "Ġsuccess": 1646,
      "cept": 1647,
      "Ġrespons": 1648,
      "Ġcourse": 1649,
      "bi": 1650,
      "rod": 1651,
      "ids": 1652,
      "graph": 1653,
      "Ġpersonal": 1654,
      "Ġpossible": 1655,
      "ĠMi": 1656,
      "Ġ2018": 1657,
      "Ġsy": 1658,
      "Ġtemp": 1659,
      "soci": 1660,
      "Ġdem": 1661,
      "get": 1662,
      "ocus": 1663,
      "ection": 1664,
      "icle": 1665,
      "utes": 1666,
      "ĠWhat": 1667,
      "Ġpot": 1668,
      "Ġgroup": 1669,
      "You": 1670,
      "Ġhouse": 1671,
      "Ġvide": 1672,
      "Ġbro": 1673,
      "Ġbeaut": 1674,
      "Ġaway": 1675,
      "ĠWhen": 1676,
      "Ġ199": 1677,
      "ales": 1678,
      "IN": 1679,
      "ĠBl": 1680,
      "illion": 1681,
      "ister": 1682,
      "Ġtogether": 1683,
      "Ġanal": 1684,
      "Ġaut": 1685,
      "Ġaccount": 1686,
      "Ġperfect": 1687,
      "Ġspace": 1688,
      "Ġbelie": 1689,
      "for": 1690,
      "Ġseem": 1691,
      "Ġscr": 1692,
      "ĠMo": 1693,
      "eam": 1694,
      "ĠRes": 1695,
      "Ġvisit": 1696,
      "Ġreport": 1697,
      "Ġann": 1698,
      "ces": 1699,
      "ley": 1700,
      "erv": 1701,
      "Ġmoney": 1702,
      "Ġworks": 1703,
      "igi": 1704,
      "Ġnear": 1705,
      "ury": 1706,
      "Ġmethod": 1707,
      "ĠGe": 1708,
      "Ġfield": 1709,
      "ference": 1710,
      "port": 1711,
      "Ġ24": 1712,
      "Ġuntil": 1713,
      "Ġtimes": 1714,
      "ainst": 1715,
      "ividual": 1716,
      "nation": 1717,
      "Ġmateri": 1718,
      "Ġdefi": 1719,
      "ĠSu": 1720,
      "ĠRo": 1721,
      "Ġside": 1722,
      "Ġid": 1723,
      "Ġtrad": 1724,
      "rr": 1725,
      "Ġcent": 1726,
      "cu": 1727,
      "Ġcreate": 1728,
      "Ġexpect": 1729,
      "ken": 1730,
      "Ġsoft": 1731,
      "Ġfour": 1732,
      "achi": 1733,
      "vious": 1734,
      "Ġ50": 1735,
      "Ġemploy": 1736,
      "aces": 1737,
      "ising": 1738,
      "ium": 1739,
      "Ġpage": 1740,
      "yle": 1741,
      "unch": 1742,
      "Ġname": 1743,
      "Ġoften": 1744,
      "son": 1745,
      "Ġinclude": 1746,
      "Ġhaving": 1747,
      "ĠMar": 1748,
      "Ġleg": 1749,
      "Ġhum": 1750,
      "utions": 1751,
      "rtain": 1752,
      "viron": 1753,
      "Ġsim": 1754,
      "nanc": 1755,
      "mend": 1756,
      "ĠUniversity": 1757,
      "vent": 1758,
      "nch": 1759,
      "itive": 1760,
      "Ġcheck": 1761,
      "Ġwhy": 1762,
      "Ġcame": 1763,
      "ording": 1764,
      "Ġcontact": 1765,
      "Ġinte": 1766,
      "ront": 1767,
      "Ġvers": 1768,
      "Ġfar": 1769,
      "pec": 1770,
      "way": 1771,
      "ked": 1772,
      "Ġcommunity": 1773,
      "Ġkind": 1774,
      "Ġhist": 1775,
      "Ġlow": 1776,
      "ĠLi": 1777,
      "Ġel": 1778,
      "ats": 1779,
      "As": 1780,
      "Ġreview": 1781,
      "ĠEng": 1782,
      "Ġword": 1783,
      "aps": 1784,
      "Ġbene": 1785,
      "ĠCar": 1786,
      "Ġfocus": 1787,
      "Ġindividual": 1788,
      "ees": 1789,
      "Ġmeans": 1790,
      "ON": 1791,
      "Ġagainst": 1792,
      "ĠCon": 1793,
      "Ġresults": 1794,
      "iful": 1795,
      "Ġdone": 1796,
      "ĠThat": 1797,
      "fact": 1798,
      "âĢ¦": 1799,
      "omen": 1800,
      "ified": 1801,
      "indow": 1802,
      "Ġmulti": 1803,
      "ateg": 1804,
      "urth": 1805,
      "Ġocc": 1806,
      "Ġspecific": 1807,
      "ote": 1808,
      "Ġnight": 1809,
      "Ġmakes": 1810,
      "Ġest": 1811,
      "Ġene": 1812,
      "hie": 1813,
      "ots": 1814,
      "Ġener": 1815,
      "Ġshort": 1816,
      "Ġopt": 1817,
      "Ġgiven": 1818,
      "ĠOur": 1819,
      "Ġprice": 1820,
      "uro": 1821,
      "Ġproblem": 1822,
      "els": 1823,
      "Ġmove": 1824,
      "xim": 1825,
      "nies": 1826,
      "Ġleft": 1827,
      "Ġens": 1828,
      "urthe": 1829,
      "Ġbuy": 1830,
      "ready": 1831,
      "Ġbecome": 1832,
      "Ġenter": 1833,
      "ĠThese": 1834,
      "Ġdevelopment": 1835,
      "urs": 1836,
      "jor": 1837,
      "Ġ21": 1838,
      "Ġopportun": 1839,
      "Ġremo": 1840,
      "ĠAn": 1841,
      "Ġvalue": 1842,
      "urther": 1843,
      "resent": 1844,
      "Ġseveral": 1845,
      "pect": 1846,
      "Ġtyp": 1847,
      "Ġmembers": 1848,
      "ĠJu": 1849,
      "ift": 1850,
      "engt": 1851,
      "ĠCr": 1852,
      "Ġbody": 1853,
      "ensive": 1854,
      "ES": 1855,
      "Ġcal": 1856,
      "Ġ;": 1857,
      "Ġbelow": 1858,
      "ĠPhys": 1859,
      "Ġpast": 1860,
      "ĠGod": 1861,
      "Ġparticular": 1862,
      "Ġcertain": 1863,
      "AT": 1864,
      "oring": 1865,
      "Ġexample": 1866,
      "Ġtool": 1867,
      "uture": 1868,
      "by": 1869,
      "Ġfollowing": 1870,
      "Ġenough": 1871,
      "Ġrequir": 1872,
      "eg": 1873,
      "Ġdistr": 1874,
      "hile": 1875,
      "Ġmar": 1876,
      "Ġow": 1877,
      "Ġrange": 1878,
      "vernment": 1879,
      "Ġeduc": 1880,
      "vironment": 1881,
      "Ġbit": 1882,
      "Ġbed": 1883,
      "Ġfav": 1884,
      "ides": 1885,
      "Ġlive": 1886,
      "ĠApp": 1887,
      "rie": 1888,
      "Ġalready": 1889,
      "'m": 1890,
      "Ġclea": 1891,
      "Ġvol": 1892,
      "Ġcomes": 1893,
      "Ġpack": 1894,
      "Ġacross": 1895,
      "Ġkey": 1896,
      "ithe": 1897,
      "ances": 1898,
      "Ġ22": 1899,
      "Ġident": 1900,
      "Ġabove": 1901,
      "Ġpurch": 1902,
      "cent": 1903,
      "Ġmea": 1904,
      "ĠMan": 1905,
      "ze": 1906,
      "Ġothers": 1907,
      "Ġmain": 1908,
      "Ġmusic": 1909,
      "lement": 1910,
      "ives": 1911,
      "ara": 1912,
      "Ġfund": 1913,
      "yc": 1914,
      "...": 1915,
      ",âĢĿ": 1916,
      "ĠHer": 1917,
      "Ġtry": 1918,
      "Ġess": 1919,
      "atic": 1920,
      "ique": 1921,
      "val": 1922,
      "Ġite": 1923,
      "Ġgetting": 1924,
      "Ġhold": 1925,
      "ĠCan": 1926,
      "ulation": 1927,
      "Ġjob": 1928,
      "Ġra": 1929,
      "'r": 1930,
      "'re": 1931,
      "att": 1932,
      "ither": 1933,
      "Ġever": 1934,
      "AN": 1935,
      "Ġcontin": 1936,
      "Ġorigi": 1937,
      "AR": 1938,
      "side": 1939,
      "ommend": 1940,
      "nam": 1941,
      "âĢľ": 1942,
      "osed": 1943,
      "par": 1944,
      "Ġsocial": 1945,
      "nking": 1946,
      "aud": 1947,
      "ĠMy": 1948,
      "ĠEd": 1949,
      "Ġquick": 1950,
      "acy": 1951,
      "ĠNe": 1952,
      "ental": 1953,
      "alf": 1954,
      "Ġtrave": 1955,
      "Ġfeatures": 1956,
      "Ġprep": 1957,
      "Ġwin": 1958,
      "anies": 1959,
      "Ġenc": 1960,
      "eet": 1961,
      "onde": 1962,
      "ĠâĢĶ": 1963,
      "Ġmeas": 1964,
      "Ġmind": 1965,
      "Ġï": 1966,
      "Ġshare": 1967,
      "Ġoffers": 1968,
      "Ġleast": 1969,
      "Ġsearch": 1970,
      "ource": 1971,
      "Ġeffect": 1972,
      "urity": 1973,
      "iod": 1974,
      "not": 1975,
      "ume": 1976,
      "Ġdiscuss": 1977,
      "Ġenergy": 1978,
      "Ġcharac": 1979,
      "Ġcontr": 1980,
      "ger": 1981,
      "ĠBo": 1982,
      "Ġsum": 1983,
      "Ġclear": 1984,
      "ements": 1985,
      "Ġ00": 1986,
      "conom": 1987,
      "uter": 1988,
      "Ġmajor": 1989,
      "Ġdep": 1990,
      "bal": 1991,
      "Ġfuture": 1992,
      "lished": 1993,
      "Ġant": 1994,
      "Ġstrong": 1995,
      "ĠHowever": 1996,
      "Ġcoo": 1997,
      "ĠSc": 1998,
      "ĠÐ": 1999,
      "uced": 2000,
      "Ġcalled": 2001,
      "Ġrecord": 2002,
      "ients": 2003,
      "ooks": 2004,
      "Ġwo": 2005,
      "ilities": 2006,
      "For": 2007,
      "'ve": 2008,
      "rve": 2009,
      "Ġmom": 2010,
      "ule": 2011,
      "Ġinvol": 2012,
      "Ġconc": 2013,
      "Ġtype": 2014,
      "Ġbenef": 2015,
      "ĠWor": 2016,
      "ĠStr": 2017,
      "Ġrecommend": 2018,
      "Ġconsider": 2019,
      "Ġdoing": 2020,
      "atural": 2021,
      "Ġsingle": 2022,
      "Ġcamp": 2023,
      "Ġinstall": 2024,
      "Ġtot": 2025,
      "Ġhours": 2026,
      "esh": 2027,
      "Ġtur": 2028,
      "Ġvideo": 2029,
      "kers": 2030,
      "ipp": 2031,
      "Ġactually": 2032,
      "ĠDr": 2033,
      "Ġbeautiful": 2034,
      "Ġ2017": 2035,
      "Ġbring": 2036,
      "ĠMay": 2037,
      "aking": 2038,
      "arr": 2039,
      "Ġcity": 2040,
      "What": 2041,
      "Ġcurrent": 2042,
      "idd": 2043,
      "EE": 2044,
      "iter": 2045,
      "ung": 2046,
      "Ġaddress": 2047,
      "Ġla": 2048,
      "Ġ2019": 2049,
      "ilar": 2050,
      "Ġpict": 2051,
      "ĠPri": 2052,
      "oud": 2053,
      "Ġindustry": 2054,
      "Ġsize": 2055,
      "Ġtraining": 2056,
      "Ġdescri": 2057,
      "ties": 2058,
      "Ġconnect": 2059,
      "bed": 2060,
      "Ġcorr": 2061,
      "Ġshop": 2062,
      "ki": 2063,
      "artment": 2064,
      "sh": 2065,
      "ify": 2066,
      "Ġonce": 2067,
      "Ġclose": 2068,
      "Ġtell": 2069,
      "Ġminutes": 2070,
      "Ġamount": 2071,
      "ength": 2072,
      "Ġdownload": 2073,
      "Ġlearn": 2074,
      "Ġcountry": 2075,
      "Ġflo": 2076,
      "Ġdef": 2077,
      "most": 2078,
      "Ġcut": 2079,
      "áĨ": 2080,
      "tee": 2081,
      "Ġdue": 2082,
      "uff": 2083,
      "Ġsimple": 2084,
      "Ġmag": 2085,
      "por": 2086,
      "Ġmot": 2087,
      "urance": 2088,
      "Ġstory": 2089,
      "Ġplease": 2090,
      "Ġprovides": 2091,
      "ĠChi": 2092,
      "ami": 2093,
      "Ġmil": 2094,
      "Ġstarted": 2095,
      "ĠSi": 2096,
      "Ġfriends": 2097,
      "ilt": 2098,
      "fort": 2099,
      "OR": 2100,
      "Ġ23": 2101,
      "ĠFe": 2102,
      "Ġprob": 2103,
      "aged": 2104,
      "Ġcompanies": 2105,
      "ience": 2106,
      "Ġknown": 2107,
      ",\"": 2108,
      "He": 2109,
      "tin": 2110,
      "Ġchall": 2111,
      "Ġ40": 2112,
      "Ġrele": 2113,
      "astic": 2114,
      "Ġoffice": 2115,
      "Ġproperty": 2116,
      "ories": 2117,
      "ledge": 2118,
      "Ġmaint": 2119,
      "ources": 2120,
      "ored": 2121,
      "ounds": 2122,
      "Ġfir": 2123,
      "ought": 2124,
      "ests": 2125,
      "Ġenvironment": 2126,
      "ĠOne": 2127,
      "wards": 2128,
      "Ġâī": 2129,
      "Ġdra": 2130,
      "ights": 2131,
      "ĠDes": 2132,
      "Ġph": 2133,
      "Ġvarious": 2134,
      "ĠFl": 2135,
      "Ġdeter": 2136,
      "Ġtable": 2137,
      "Ġbegin": 2138,
      "eer": 2139,
      "Ġupd": 2140,
      "Ġperformance": 2141,
      "Ġ*": 2142,
      "Ġstudy": 2143,
      "âĢĶ": 2144,
      "Ġbuilding": 2145,
      "Ġris": 2146,
      "'ll": 2147,
      "Ġreason": 2148,
      "lex": 2149,
      "ĠMed": 2150,
      "Ġdidn": 2151,
      "Ġapproach": 2152,
      "Ġstay": 2153,
      "eme": 2154,
      "Ġcustomers": 2155,
      "ĠFr": 2156,
      "tt": 2157,
      "Ġeverything": 2158,
      "Ġcontent": 2159,
      "Ġwa": 2160,
      "Ġimprove": 2161,
      "urch": 2162,
      "Ġpiec": 2163,
      "Ġpress": 2164,
      "Ġperiod": 2165,
      "Ġfinanc": 2166,
      "Ġselect": 2167,
      "ables": 2168,
      "Ġdeal": 2169,
      "ators": 2170,
      "Ġprofessional": 2171,
      "vert": 2172,
      "Ġcard": 2173,
      "Ġheart": 2174,
      "Ġrepresent": 2175,
      "go": 2176,
      "ode": 2177,
      "Ġmen": 2178,
      "Ġdoesn": 2179,
      "aging": 2180,
      "abor": 2181,
      "Ġyet": 2182,
      "Ġmonths": 2183,
      "Ther": 2184,
      "ĠSouth": 2185,
      "Ġrequired": 2186,
      "ĠServ": 2187,
      "Ġche": 2188,
      "Ġcompet": 2189,
      "Ġmanagement": 2190,
      "imes": 2191,
      "Ġtechnology": 2192,
      "Ġstruct": 2193,
      "Ġinde": 2194,
      "rib": 2195,
      "ock": 2196,
      "ye": 2197,
      "AS": 2198,
      "Ġtas": 2199,
      "Ġphys": 2200,
      "oma": 2201,
      "Ġabs": 2202,
      "ĠSte": 2203,
      "Ġsystems": 2204,
      "Ġpriv": 2205,
      "aur": 2206,
      "Ðµ": 2207,
      "ived": 2208,
      "asing": 2209,
      "Ġweb": 2210,
      "Ġsuper": 2211,
      "iday": 2212,
      "Ġyours": 2213,
      "There": 2214,
      "ites": 2215,
      "Ġearly": 2216,
      "ĠLet": 2217,
      "Ġthought": 2218,
      "ouch": 2219,
      "ino": 2220,
      "Ġquestions": 2221,
      "ĠHow": 2222,
      "ding": 2223,
      "ĠInter": 2224,
      "Ġyoung": 2225,
      "whe": 2226,
      "itical": 2227,
      "Ġmachi": 2228,
      "temp": 2229,
      "Ġ2016": 2230,
      "Ġlearning": 2231,
      "Ġseason": 2232,
      "truction": 2233,
      "Ġwon": 2234,
      "Ġfunction": 2235,
      "ced": 2236,
      "book": 2237,
      "Ġcred": 2238,
      "aid": 2239,
      "Ġfurther": 2240,
      "Ġtax": 2241,
      "Ġwatch": 2242,
      "ctr": 2243,
      "ibility": 2244,
      "ww": 2245,
      "Ġissues": 2246,
      "play": 2247,
      "hy": 2248,
      "Ġsat": 2249,
      "ĠComm": 2250,
      "Ġpaper": 2251,
      "ounc": 2252,
      "lege": 2253,
      "pecially": 2254,
      "omes": 2255,
      "Ġmess": 2256,
      "Ġbar": 2257,
      "Ġnews": 2258,
      "Ġhy": 2259,
      "Ġwonde": 2260,
      "ime": 2261,
      "ĠGu": 2262,
      "action": 2263,
      "ÌĪ": 2264,
      "ĠDec": 2265,
      "Ġliving": 2266,
      "face": 2267,
      "atter": 2268,
      "Ġmillion": 2269,
      "istance": 2270,
      "Ġwall": 2271,
      "Ġeffective": 2272,
      "illed": 2273,
      "ming": 2274,
      "Ġareas": 2275,
      "ĠâĪĪ": 2276,
      "idence": 2277,
      "do": 2278,
      "Ġwhole": 2279,
      "fully": 2280,
      "Ġrelations": 2281,
      "Ġfit": 2282,
      "Ġpolic": 2283,
      "Ġunique": 2284,
      "Ġelect": 2285,
      "Ġcommon": 2286,
      "Ð¾": 2287,
      "Ġtaking": 2288,
      "ĠNorth": 2289,
      "Ġfront": 2290,
      "Ġhope": 2291,
      "elves": 2292,
      "lus": 2293,
      "Ġtook": 2294,
      "Co": 2295,
      "Ġans": 2296,
      "ams": 2297,
      "ĠGo": 2298,
      "uation": 2299,
      "Ġlater": 2300,
      "ĠCont": 2301,
      "ĠAmerican": 2302,
      "Ġhappen": 2303,
      "Ġfra": 2304,
      "Ġgeneral": 2305,
      "ĠEuro": 2306,
      "Ġblack": 2307,
      "tit": 2308,
      "Ġwhether": 2309,
      "wher": 2310,
      "Ġeither": 2311,
      "Ġport": 2312,
      "Ġfa": 2313,
      "where": 2314,
      "ĠRep": 2315,
      "Ġinit": 2316,
      "Ġexist": 2317,
      "Ġseen": 2318,
      "Ġhol": 2319,
      "Ġdig": 2320,
      "Ġlim": 2321,
      "Ġemail": 2322,
      "Ġseries": 2323,
      "Ġidea": 2324,
      "Ġdepend": 2325,
      "rti": 2326,
      "angu": 2327,
      "Ġski": 2328,
      "nne": 2329,
      "ex": 2330,
      "Ġaud": 2331,
      "Ġeconom": 2332,
      "Ġgovernment": 2333,
      "ĠPar": 2334,
      "ĠYour": 2335,
      "ourt": 2336,
      "Ġexper": 2337,
      "ĠFra": 2338,
      "Ġauthor": 2339,
      "Ġimage": 2340,
      "IS": 2341,
      "Ġprom": 2342,
      "though": 2343,
      "Ġdesigned": 2344,
      "EN": 2345,
      "Ġamong": 2346,
      "Ġachie": 2347,
      "Ġprovided": 2348,
      "Ġjoi": 2349,
      "wer": 2350,
      "Ġincludes": 2351,
      "Ġsomeone": 2352,
      "ishing": 2353,
      "Ġparticip": 2354,
      "Ġtrack": 2355,
      "Ġapplication": 2356,
      "tead": 2357,
      "itional": 2358,
      "Ġnecess": 2359,
      "Ġsugg": 2360,
      "tain": 2361,
      "Ġblog": 2362,
      "lin": 2363,
      "Ġdocu": 2364,
      "Ġfinish": 2365,
      "Ġhuma": 2366,
      "itted": 2367,
      "Ġglo": 2368,
      "Ġsays": 2369,
      "Ġclai": 2370,
      "Ġmedia": 2371,
      "Ġsimilar": 2372,
      "pers": 2373,
      "Ġtour": 2374,
      "ader": 2375,
      "Ġchoose": 2376,
      "Ġcir": 2377,
      "Ġideas": 2378,
      "Ġcombi": 2379,
      "AL": 2380,
      "come": 2381,
      "Ġlay": 2382,
      "aching": 2383,
      "Ġnatural": 2384,
      "Ġsignific": 2385,
      "wor": 2386,
      "Ġquestion": 2387,
      "Ġneeded": 2388,
      "Ġquite": 2389,
      "kely": 2390,
      "ĠPh": 2391,
      "ĠQu": 2392,
      "IT": 2393,
      "ĠNot": 2394,
      "ãģ": 2395,
      "aver": 2396,
      "ru": 2397,
      "ED": 2398,
      "Ġproblems": 2399,
      "Ġsoftware": 2400,
      "Ġcolor": 2401,
      "gle": 2402,
      "Ġtal": 2403,
      "Ġage": 2404,
      "Ġprint": 2405,
      "Ġengine": 2406,
      "rm": 2407,
      "Ġself": 2408,
      "Ġstaff": 2409,
      "Ġetc": 2410,
      "ided": 2411,
      "Ġmor": 2412,
      "Ġteach": 2413,
      "Ġwent": 2414,
      "ov": 2415,
      "ever": 2416,
      "Ġfive": 2417,
      "Ġsimply": 2418,
      "Ġanalys": 2419,
      "ged": 2420,
      "IC": 2421,
      "ike": 2422,
      "Ġdou": 2423,
      "ication": 2424,
      "Ġreach": 2425,
      "Ġgames": 2426,
      "Ġstyle": 2427,
      "Ġ2015": 2428,
      "Ġcomfort": 2429,
      "Ġmatch": 2430,
      "umer": 2431,
      "Ġsubs": 2432,
      "ogn": 2433,
      "Ġobs": 2434,
      "Ġwriting": 2435,
      "Ġwhite": 2436,
      "Ġdetails": 2437,
      "Ġoil": 2438,
      "Ġintegr": 2439,
      "Ġoptions": 2440,
      "âĪĴ": 2441,
      "ĠChrist": 2442,
      "tel": 2443,
      "Ġbelieve": 2444,
      "Ġbreak": 2445,
      "pri": 2446,
      "olution": 2447,
      "Ġhuman": 2448,
      "ĠCons": 2449,
      "Ġknowledge": 2450,
      "ĠCal": 2451,
      "Ġevents": 2452,
      "Ġhistory": 2453,
      "Ġposition": 2454,
      "lie": 2455,
      "When": 2456,
      "ĠEurope": 2457,
      "Ġmiss": 2458,
      "ĠCount": 2459,
      "Ġpoints": 2460,
      "ĠAfter": 2461,
      "uction": 2462,
      "ĠCity": 2463,
      "time": 2464,
      "Ġwomen": 2465,
      "Ġfavor": 2466,
      "Ġrepl": 2467,
      "osp": 2468,
      "ball": 2469,
      "ott": 2470,
      "Ġespecially": 2471,
      "20": 2472,
      "Ġcop": 2473,
      "Ġoffic": 2474,
      "put": 2475,
      "ĠUnited": 2476,
      "Ġhalf": 2477,
      "Ġinsp": 2478,
      "Ġbox": 2479,
      "raft": 2480,
      "Ġassoci": 2481,
      "Ġprevious": 2482,
      "back": 2483,
      "ians": 2484,
      "etty": 2485,
      "hird": 2486,
      "tion": 2487,
      "Ġeveryone": 2488,
      "ede": 2489,
      "Ġpercent": 2490,
      "nim": 2491,
      "ĠInc": 2492,
      "Ġ26": 2493,
      "ceed": 2494,
      "Ġdiffic": 2495,
      "igns": 2496,
      "Ġensure": 2497,
      "Ġwide": 2498,
      "Ġface": 2499,
      "Ġtext": 2500,
      "Ġuser": 2501,
      "Ġland": 2502,
      "Ġalmost": 2503,
      "Ġ198": 2504,
      "top": 2505,
      "Ġcult": 2506,
      "Ġhost": 2507,
      "Ġadded": 2508,
      "Ġpotential": 2509,
      "Ġyourself": 2510,
      "50": 2511,
      "itchen": 2512,
      "Ġfunct": 2513,
      "iso": 2514,
      "oll": 2515,
      "Ġful": 2516,
      "Ġanything": 2517,
      "Ġpopular": 2518,
      "ises": 2519,
      "Ġamaz": 2520,
      "Ġvia": 2521,
      "Ġrate": 2522,
      "Ġcharacter": 2523,
      "airs": 2524,
      "Ġhowever": 2525,
      "Ġcell": 2526,
      "Ġturn": 2527,
      "ĠTra": 2528,
      "nov": 2529,
      "Ġcontinu": 2530,
      "ĠCha": 2531,
      "Ġfall": 2532,
      "ĠTH": 2533,
      "Ġtaken": 2534,
      "To": 2535,
      "ĠJa": 2536,
      "ufact": 2537,
      "Ġcustomer": 2538,
      "Ġ28": 2539,
      "ĠSchool": 2540,
      "AC": 2541,
      "Ġnorm": 2542,
      "Ġq": 2543,
      "Ġcoll": 2544,
      "selves": 2545,
      "Ġfinal": 2546,
      "ules": 2547,
      "Ġcreated": 2548,
      "Ġmass": 2549,
      "Ġsolution": 2550,
      "ĠÎ±": 2551,
      "Ġissue": 2552,
      "Ġshows": 2553,
      "ada": 2554,
      "Ġdam": 2555,
      "Ġspend": 2556,
      "ĠÂ·": 2557,
      "ĠState": 2558,
      "ĠAc": 2559,
      "ĠSa": 2560,
      "Ġfoot": 2561,
      "gress": 2562,
      "Ġregular": 2563,
      "Ġsignificant": 2564,
      "Ġoriginal": 2565,
      "Ġhighe": 2566,
      "ama": 2567,
      "Ġhigher": 2568,
      "Ġrad": 2569,
      "Ġmanufact": 2570,
      "Ġways": 2571,
      "Ġwood": 2572,
      "Ġlink": 2573,
      "Ġbrand": 2574,
      "Ġdisco": 2575,
      "ĠDis": 2576,
      "Ġintrod": 2577,
      "roll": 2578,
      "Ġsend": 2579,
      "Ġphone": 2580,
      "Ġclients": 2581,
      "Ġ27": 2582,
      "rc": 2583,
      "Ġflow": 2584,
      "Ġlocated": 2585,
      "Ġtotal": 2586,
      "Ġago": 2587,
      "Ġdom": 2588,
      "Ġpick": 2589,
      "elling": 2590,
      "Ġthird": 2591,
      "Ġimpact": 2592,
      "eless": 2593,
      "aced": 2594,
      "Ġvo": 2595,
      "Ġattr": 2596,
      "Ġnetwork": 2597,
      "lu": 2598,
      "ipment": 2599,
      "ĠOff": 2600,
      "Ġregard": 2601,
      "ĠSec": 2602,
      "Ġ31": 2603,
      "Ġstep": 2604,
      "Ġadditional": 2605,
      "igure": 2606,
      "ĠBar": 2607,
      "ĠRec": 2608,
      "ĠHigh": 2609,
      "Ġaction": 2610,
      "indows": 2611,
      "Ġincrease": 2612,
      "Ġdegr": 2613,
      "Ġversion": 2614,
      "Ġchanges": 2615,
      "Ġ2014": 2616,
      "Ġfast": 2617,
      "Ġwonder": 2618,
      "ĠNational": 2619,
      "Ġfinancial": 2620,
      "Ġforward": 2621,
      "Ġgrad": 2622,
      "Ġlikely": 2623,
      "Ġmatter": 2624,
      "ension": 2625,
      "Ġlat": 2626,
      "Ġut": 2627,
      "Ġveh": 2628,
      "Ġtrip": 2629,
      "Ġsent": 2630,
      "ille": 2631,
      "Ġestab": 2632,
      "ried": 2633,
      "Ġbeh": 2634,
      "Ð°": 2635,
      "Ġextra": 2636,
      "So": 2637,
      "Ġstat": 2638,
      "Ġinside": 2639,
      "Ġcontrib": 2640,
      "itten": 2641,
      "Ġpaint": 2642,
      "Ġreceive": 2643,
      "ĠCor": 2644,
      "rang": 2645,
      "Ġfile": 2646,
      "Ġaccept": 2647,
      "Ġtakes": 2648,
      "Do": 2649,
      "mb": 2650,
      "Ġbad": 2651,
      "Ġapply": 2652,
      "Ġroad": 2653,
      "Ġterms": 2654,
      "elt": 2655,
      "Ġdeliver": 2656,
      "ky": 2657,
      "eath": 2658,
      "Ġinsurance": 2659,
      "Ġthroughout": 2660,
      "medi": 2661,
      "dd": 2662,
      "Ġ60": 2663,
      "St": 2664,
      "comp": 2665,
      "Ġdistrib": 2666,
      "Ġ#": 2667,
      "atur": 2668,
      "pro": 2669,
      "Ġstandard": 2670,
      "ĠáĦ": 2671,
      "Ġsetting": 2672,
      "Ġdeb": 2673,
      "Ġloss": 2674,
      "hone": 2675,
      "Ġprotect": 2676,
      "anks": 2677,
      "ãĤ": 2678,
      "ĠVe": 2679,
      "Ġusually": 2680,
      "ification": 2681,
      "ana": 2682,
      "Ġdate": 2683,
      "member": 2684,
      "based": 2685,
      "Ġopportunity": 2686,
      "ĠBy": 2687,
      "augh": 2688,
      "ternational": 2689,
      "idge": 2690,
      "Ġexact": 2691,
      "Ġsecurity": 2692,
      "Ġmob": 2693,
      "Ġext": 2694,
      "Ġhu": 2695,
      "Ġrather": 2696,
      "Ġrecogn": 2697,
      "Ġwar": 2698,
      "ĠMic": 2699,
      "Ġsaf": 2700,
      "Ġitems": 2701,
      "Ġcurrently": 2702,
      "Ġeffic": 2703,
      "ournal": 2704,
      "Ġready": 2705,
      "Ġskin": 2706,
      "ech": 2707,
      "ping": 2708,
      "Ġstore": 2709,
      "Ġautom": 2710,
      "hib": 2711,
      "Ġtreatment": 2712,
      "Ġcoming": 2713,
      "Ġsens": 2714,
      "ria": 2715,
      "Ġmix": 2716,
      "izing": 2717,
      "Ġsales": 2718,
      "lebr": 2719,
      "ĠApr": 2720,
      "met": 2721,
      "Ġskills": 2722,
      "istic": 2723,
      "ili": 2724,
      "Ġsubject": 2725,
      "ram": 2726,
      "Ġsoon": 2727,
      "Ġoutside": 2728,
      "ellent": 2729,
      "Ġeasily": 2730,
      "Ġusers": 2731,
      "ges": 2732,
      "Ġcode": 2733,
      "Ġprobably": 2734,
      "Ġdifficult": 2735,
      "Ġmys": 2736,
      "ĠPart": 2737,
      "ĠStud": 2738,
      "ctor": 2739,
      "osing": 2740,
      "Ġcannot": 2741,
      "Ġrelated": 2742,
      "Ġsuggest": 2743,
      "anim": 2744,
      "over": 2745,
      "Ġlonge": 2746,
      "Ġcustom": 2747,
      "Ġactivities": 2748,
      "ĠYork": 2749,
      "eed": 2750,
      "Ġaccording": 2751,
      "Ġmean": 2752,
      "Ġneg": 2753,
      "Ġsle": 2754,
      "tended": 2755,
      "Ġeducation": 2756,
      "lied": 2757,
      "Ġwalk": 2758,
      "Ġsmo": 2759,
      "Ġconditions": 2760,
      "Ġchoice": 2761,
      "Ġtrue": 2762,
      "Ġhappy": 2763,
      "Ġrole": 2764,
      "hind": 2765,
      "ĠWorld": 2766,
      "Ġtrying": 2767,
      "my": 2768,
      "ison": 2769,
      "Ġmaterial": 2770,
      "Ġparty": 2771,
      "Ġmember": 2772,
      "Ġsection": 2773,
      "ĠSci": 2774,
      "Ġill": 2775,
      "used": 2776,
      "eli": 2777,
      "atform": 2778,
      "Ġreceived": 2779,
      "Ġaver": 2780,
      "Ġcontract": 2781,
      "umb": 2782,
      "ager": 2783,
      "ka": 2784,
      "Ġprivate": 2785,
      "Ġminim": 2786,
      "Ġdrive": 2787,
      "ĠSome": 2788,
      "Ġcontinue": 2789,
      "Ġkids": 2790,
      "ĠPer": 2791,
      "Ġlog": 2792,
      "Ġallows": 2793,
      "Ġrunning": 2794,
      "ĠBu": 2795,
      "Ġexpress": 2796,
      "Ġpretty": 2797,
      "Ġpractice": 2798,
      "Ġtalk": 2799,
      "Ġprior": 2800,
      "gu": 2801,
      "iving": 2802,
      "Ġcur": 2803,
      "mas": 2804,
      "Ġcondition": 2805,
      "Ġlangu": 2806,
      "Ġcas": 2807,
      "Ġvariety": 2808,
      "Ġbath": 2809,
      "Ġprojects": 2810,
      "alle": 2811,
      "ĠInternational": 2812,
      "Ġweight": 2813,
      "Ġfix": 2814,
      "Ġ32": 2815,
      "Ġamazing": 2816,
      "Ġcomputer": 2817,
      "ecut": 2818,
      "Ġwanted": 2819,
      "Ġbuilt": 2820,
      "Ġask": 2821,
      "bor": 2822,
      "aily": 2823,
      "Ġlower": 2824,
      "Ġmachine": 2825,
      "ret": 2826,
      "ĠSoc": 2827,
      "Ġ2013": 2828,
      "Ġlonger": 2829,
      "Ġcredit": 2830,
      "ago": 2831,
      "national": 2832,
      "Ġwords": 2833,
      "Ġoption": 2834,
      "ĠTw": 2835,
      "Ġlocation": 2836,
      "Ġrisk": 2837,
      "Ġmodern": 2838,
      "Ġnice": 2839,
      "ĠChris": 2840,
      "rown": 2841,
      "ĠVi": 2842,
      "Ġbal": 2843,
      "Ġgrowt": 2844,
      "Ġfilm": 2845,
      "Ġgrowth": 2846,
      ".âĢĿ": 2847,
      "//": 2848,
      "Ġheld": 2849,
      "ĠâĢ²": 2850,
      "ĠDep": 2851,
      "Ġisn": 2852,
      "Ġ29": 2853,
      "Ġrequest": 2854,
      "ĠHis": 2855,
      "Ġproduction": 2856,
      "ux": 2857,
      "Ġsound": 2858,
      "Ġmoment": 2859,
      "Ġrefer": 2860,
      "ustral": 2861,
      "ering": 2862,
      "Ġarch": 2863,
      "Ġbooks": 2864,
      "Ġarticle": 2865,
      "On": 2866,
      "Ġpurchase": 2867,
      "ba": 2868,
      "ĠPlease": 2869,
      "ration": 2870,
      "Ġsepar": 2871,
      "ĠÂµ": 2872,
      "ously": 2873,
      "Ġtarg": 2874,
      "Ġworth": 2875,
      "Sh": 2876,
      "Ġsolutions": 2877,
      "Ġfail": 2878,
      "ĠNow": 2879,
      "lers": 2880,
      "Ġincluded": 2881,
      "ĠReg": 2882,
      "ester": 2883,
      "log": 2884,
      "Ð¸": 2885,
      "Ġdog": 2886,
      "Ġresid": 2887,
      "oid": 2888,
      "ĠMark": 2889,
      "Ġrecent": 2890,
      "Ġprec": 2891,
      "Ġanim": 2892,
      "Ġdeep": 2893,
      "adem": 2894,
      "icated": 2895,
      "atory": 2896,
      "Ġclean": 2897,
      "How": 2898,
      "Ġlatest": 2899,
      "aves": 2900,
      "Ġge": 2901,
      "ĠSep": 2902,
      "And": 2903,
      "mar": 2904,
      "Ġcirc": 2905,
      "Ġbehind": 2906,
      "Ġleave": 2907,
      "Ġupo": 2908,
      "Ġupon": 2909,
      "rec": 2910,
      "anced": 2911,
      "ĠThen": 2912,
      "enced": 2913,
      "arth": 2914,
      "Ġmarketing": 2915,
      "Ġcollect": 2916,
      "Ġweeks": 2917,
      "ham": 2918,
      "Ġcomplex": 2919,
      "oups": 2920,
      "pose": 2921,
      "Ġtouch": 2922,
      "Ġstop": 2923,
      "ublic": 2924,
      "Ġdisplay": 2925,
      "Ġappear": 2926,
      "Ġï£": 2927,
      "Ġscreen": 2928,
      "ev": 2929,
      "Ġclick": 2930,
      "Ġtravel": 2931,
      "icles": 2932,
      "ĊĊ": 2933,
      "Ġreading": 2934,
      "ea": 2935,
      "Ġconcer": 2936,
      "Ġ2012": 2937,
      "Ġcouple": 2938,
      "istration": 2939,
      "ĠSm": 2940,
      "iction": 2941,
      "ĠWill": 2942,
      "arden": 2943,
      "OS": 2944,
      "ĠCent": 2945,
      "Ġanyone": 2946,
      "ĠRev": 2947,
      "Ġlooks": 2948,
      "nary": 2949,
      "Ġdetail": 2950,
      "Ġreturn": 2951,
      "Ġparts": 2952,
      "ĠCenter": 2953,
      "Ġelectr": 2954,
      "Ġsqu": 2955,
      "Ġcenter": 2956,
      "Ġnecessary": 2957,
      "Ġanalysis": 2958,
      "Ġshall": 2959,
      "Our": 2960,
      "just": 2961,
      "Ġsched": 2962,
      "oogle": 2963,
      "Ġwish": 2964,
      "nese": 2965,
      "ĠJohn": 2966,
      "Ġdevice": 2967,
      "Ġtypes": 2968,
      "Ġtold": 2969,
      "Ġentire": 2970,
      "ĠPark": 2971,
      "lier": 2972,
      "Ġhon": 2973,
      "ground": 2974,
      "Ġsil": 2975,
      "hips": 2976,
      "Ġcorrect": 2977,
      "ĠOf": 2978,
      "Ġgives": 2979,
      "Ġmaterials": 2980,
      "OU": 2981,
      "Ġquickly": 2982,
      "ellow": 2983,
      "ĠSw": 2984,
      "Ġboard": 2985,
      "://": 2986,
      "ĠApril": 2987,
      "Ġimages": 2988,
      "Ġcelebr": 2989,
      "Ġlives": 2990,
      "ĠHo": 2991,
      "Ġsamp": 2992,
      "Ġ35": 2993,
      "Ġmedical": 2994,
      "Ġfeed": 2995,
      "Ġsale": 2996,
      "ĠMc": 2997,
      "Ġseems": 2998,
      "Ġsect": 2999,
      "Ġequipment": 3000,
      "Ġbase": 3001,
      "ĠPa": 3002,
      "Ġmultiple": 3003,
      "Ġ36": 3004,
      "Ġproviding": 3005,
      "Ġfresh": 3006,
      "Ġinternational": 3007,
      "Ġkitchen": 3008,
      "OT": 3009,
      "Ġsafe": 3010,
      "ĠStates": 3011,
      "ĠCounty": 3012,
      "Ġhair": 3013,
      "Ġones": 3014,
      "Ġrecently": 3015,
      "Ġplatform": 3016,
      "tra": 3017,
      "ĠPres": 3018,
      "Ġsource": 3019,
      "ĠPol": 3020,
      "Ġtools": 3021,
      "aven": 3022,
      "Ġleading": 3023,
      "ĠAb": 3024,
      "Ġestim": 3025,
      "Al": 3026,
      "AM": 3027,
      "Ġprograms": 3028,
      "Ġser": 3029,
      "Ġimplement": 3030,
      "Ġsave": 3031,
      "Ġground": 3032,
      "Ġarri": 3033,
      "Ġwrite": 3034,
      "Ġbur": 3035,
      "Ġability": 3036,
      "Ġpred": 3037,
      "Ġcand": 3038,
      "Ġsong": 3039,
      "ession": 3040,
      "Ġworked": 3041,
      "ĠMarch": 3042,
      "Ġelse": 3043,
      "Ġmodels": 3044,
      "iture": 3045,
      "Ġexe": 3046,
      "Ġaffect": 3047,
      "Ġpositive": 3048,
      "Ġfeature": 3049,
      "Ġpolicy": 3050,
      "ude": 3051,
      "uth": 3052,
      "ember": 3053,
      "hood": 3054,
      "va": 3055,
      "Ġstudent": 3056,
      "Ġpropos": 3057,
      "Ġagr": 3058,
      "Ġcool": 3059,
      "ĠArt": 3060,
      "ĨĴ": 3061,
      "Ġspeed": 3062,
      "ĠJust": 3063,
      "zo": 3064,
      "po": 3065,
      "Ġnothing": 3066,
      "ĠSy": 3067,
      "sy": 3068,
      "Ġpain": 3069,
      "Ġfurn": 3070,
      "Ġplant": 3071,
      "Ġcollection": 3072,
      "Ġexcellent": 3073,
      "arter": 3074,
      "Ġball": 3075,
      "aby": 3076,
      "Ġoptim": 3077,
      "Ġterm": 3078,
      "Ġcases": 3079,
      "Ġchalleng": 3080,
      "\".": 3081,
      "Ġsummer": 3082,
      "Ġsix": 3083,
      "Ġgoal": 3084,
      "mary": 3085,
      "light": 3086,
      "Ġdraw": 3087,
      "iddle": 3088,
      "ĠAustral": 3089,
      "ato": 3090,
      "Ġaverage": 3091,
      "ĠFrom": 3092,
      "Ġtit": 3093,
      "oman": 3094,
      "Ġmorning": 3095,
      "inary": 3096,
      "ĠUK": 3097,
      "Ġcause": 3098,
      "ĠMore": 3099,
      "ĠWi": 3100,
      "Ġmov": 3101,
      "ĠHere": 3102,
      "Ġproduce": 3103,
      "mercial": 3104,
      "Ġ].": 3105,
      "ugh": 3106,
      "Ġshown": 3107,
      "Ġgen": 3108,
      "ĠIndia": 3109,
      "ging": 3110,
      "Ġmobile": 3111,
      "EC": 3112,
      "Ġlab": 3113,
      "Ġmount": 3114,
      "Ġremember": 3115,
      "Ġwritten": 3116,
      "Ġlevels": 3117,
      "tant": 3118,
      "Ġcosts": 3119,
      "Ġnote": 3120,
      "Ġhighly": 3121,
      "avy": 3122,
      "Ġdirectly": 3123,
      "anne": 3124,
      "Ġleaders": 3125,
      "Ġmeeting": 3126,
      "Ġsatis": 3127,
      "Ġfavorite": 3128,
      "irth": 3129,
      "Ġinstead": 3130,
      "Ġ197": 3131,
      "nner": 3132,
      "Ġcross": 3133,
      "Ġple": 3134,
      "Ġpatients": 3135,
      "Ġtempe": 3136,
      "ĠAir": 3137,
      "Ġgir": 3138,
      "But": 3139,
      "Ġsense": 3140,
      "nic": 3141,
      "Ġquant": 3142,
      "sc": 3143,
      "Ġ>": 3144,
      "Ġdoor": 3145,
      "Ġapplications": 3146,
      "Ġglobal": 3147,
      "Ġhit": 3148,
      "ease": 3149,
      "eep": 3150,
      "ix": 3151,
      "Ġasked": 3152,
      "org": 3153,
      "pped": 3154,
      "ĠAdd": 3155,
      "hus": 3156,
      "Ġphotograph": 3157,
      "Ġdefinit": 3158,
      "irit": 3159,
      "ĠWhile": 3160,
      "Ġdigital": 3161,
      "anding": 3162,
      "Ġframe": 3163,
      "izes": 3164,
      "ĠEn": 3165,
      "cer": 3166,
      "Ġseri": 3167,
      "Ġplans": 3168,
      "Ġ500": 3169,
      "Ġbud": 3170,
      "hol": 3171,
      "ĠWest": 3172,
      "apa": 3173,
      "Ġmic": 3174,
      "wise": 3175,
      "ĠTrans": 3176,
      "Ġconsist": 3177,
      "Ġassist": 3178,
      "Ġlif": 3179,
      "echan": 3180,
      "Ġfloor": 3181,
      "ening": 3182,
      "ondo": 3183,
      "illing": 3184,
      "uel": 3185,
      "Ġcompo": 3186,
      "ulations": 3187,
      "ĠPo": 3188,
      "Ġtechni": 3189,
      "Ġbenefits": 3190,
      "Ġpath": 3191,
      "Ġcompon": 3192,
      "Ġitself": 3193,
      "ades": 3194,
      "Ġimmedi": 3195,
      "Ġinteresting": 3196,
      "With": 3197,
      "fied": 3198,
      "Ġdecision": 3199,
      "board": 3200,
      "Ġerr": 3201,
      "ĠHome": 3202,
      "ĠDay": 3203,
      "actions": 3204,
      "Ġqual": 3205,
      "ynam": 3206,
      "Ġchance": 3207,
      "rica": 3208,
      "Ġdiscover": 3209,
      "Ġ01": 3210,
      "Ġmention": 3211,
      "ina": 3212,
      "ST": 3213,
      "ffic": 3214,
      "Ġadmin": 3215,
      "OM": 3216,
      "Ġgiving": 3217,
      "nally": 3218,
      "umps": 3219,
      "cl": 3220,
      "ĠVal": 3221,
      "Ġinvolved": 3222,
      "Ġhelps": 3223,
      "Ġded": 3224,
      "Ġinj": 3225,
      "Ġdocument": 3226,
      "Ġdaily": 3227,
      "ĠMin": 3228,
      "Ġsuit": 3229,
      "Ġattention": 3230,
      "Ġhot": 3231,
      "Ġfully": 3232,
      "edding": 3233,
      "Ġexpert": 3234,
      "Ġ2011": 3235,
      "Ġresources": 3236,
      "Ġpiece": 3237,
      "Ġ2010": 3238,
      "Ġren": 3239,
      "Ġencour": 3240,
      "Ġstructure": 3241,
      "Ġlate": 3242,
      "mission": 3243,
      "ĠHar": 3244,
      "Ġgroups": 3245,
      "Ġobject": 3246,
      "Ġregister": 3247,
      "Ġgreen": 3248,
      "Ġ45": 3249,
      "Ġactive": 3250,
      "ooking": 3251,
      "Ġsafety": 3252,
      "ĠMod": 3253,
      "Ġtemper": 3254,
      "lies": 3255,
      "Ġcompr": 3256,
      "Ġtarget": 3257,
      "inge": 3258,
      "Ġlaunch": 3259,
      "Ġnational": 3260,
      "Ġrequire": 3261,
      "Ġrestaur": 3262,
      "resp": 3263,
      "la": 3264,
      "Ġcareer": 3265,
      "year": 3266,
      "Ġmer": 3267,
      "Ġplayers": 3268,
      "ĠAug": 3269,
      "aran": 3270,
      "ĠJune": 3271,
      "elcome": 3272,
      "tone": 3273,
      "Ġglass": 3274,
      "Ġlanguage": 3275,
      "Ġ80": 3276,
      "Ġrou": 3277,
      "ĠUs": 3278,
      "Ġretur": 3279,
      "Ġgold": 3280,
      "Ġofficial": 3281,
      "Ġden": 3282,
      "Ġtown": 3283,
      "Ġlarg": 3284,
      "amb": 3285,
      "Ġphotos": 3286,
      "Ġsig": 3287,
      "ĠHealth": 3288,
      "ET": 3289,
      "Ġ--": 3290,
      "atives": 3291,
      "Ġcerti": 3292,
      "Ġten": 3293,
      "ĠAssoci": 3294,
      "Ġmaxim": 3295,
      "Ġrequirements": 3296,
      "Ġplanning": 3297,
      "Ġconsidered": 3298,
      "wood": 3299,
      "Ġround": 3300,
      "kend": 3301,
      "Ġsal": 3302,
      "Ġachieve": 3303,
      "Ġcommit": 3304,
      "Ġsaw": 3305,
      "Ġcompletely": 3306,
      "Ġfine": 3307,
      "active": 3308,
      "ING": 3309,
      "zz": 3310,
      "Pro": 3311,
      "Ġstorage": 3312,
      "ÌĤ": 3313,
      "ncip": 3314,
      "Ġfrequ": 3315,
      "Ġver": 3316,
      "Ġgar": 3317,
      "acks": 3318,
      "ĠEnglish": 3319,
      "ĠDi": 3320,
      "Ġcountries": 3321,
      "Ġregion": 3322,
      "eh": 3323,
      "Ġconstruction": 3324,
      "Ġ33": 3325,
      "Ġthemselves": 3326,
      "ĠHouse": 3327,
      "Ġbag": 3328,
      "ĠAN": 3329,
      "lock": 3330,
      "Ġexpected": 3331,
      "Ġtraditional": 3332,
      "ival": 3333,
      "Ġemer": 3334,
      "Ġpages": 3335,
      "Ġconcept": 3336,
      "Fi": 3337,
      "Ġdecor": 3338,
      "Ġtrust": 3339,
      "Ġpicture": 3340,
      "Ġpm": 3341,
      "Ġjo": 3342,
      "Ġplaying": 3343,
      "eater": 3344,
      "Ġdat": 3345,
      "ĠSyste": 3346,
      "mod": 3347,
      "Ġprefer": 3348,
      "ondon": 3349,
      "Than": 3350,
      "Ġorganization": 3351,
      "new": 3352,
      "Ġmethods": 3353,
      "ĠAss": 3354,
      "iring": 3355,
      "Ġstates": 3356,
      "echn": 3357,
      "ĠBus": 3358,
      "Ġprices": 3359,
      "iles": 3360,
      "Ġdeveloped": 3361,
      "Ġunit": 3362,
      "itation": 3363,
      "Ġgraph": 3364,
      "ĠCommun": 3365,
      "nuary": 3366,
      "cks": 3367,
      "Ġgoes": 3368,
      "Ġhuge": 3369,
      "ques": 3370,
      "Ġanswer": 3371,
      "cto": 3372,
      "Ġinnov": 3373,
      "bert": 3374,
      "Ġphysical": 3375,
      "acing": 3376,
      "ĠOp": 3377,
      "ĠPat": 3378,
      "Ġsites": 3379,
      "Ġcharge": 3380,
      "Ġrespect": 3381,
      "Ġvac": 3382,
      "Ġlic": 3383,
      "Ġwal": 3384,
      "Ġlegal": 3385,
      "Ġlost": 3386,
      "itect": 3387,
      "Ġsurface": 3388,
      "Ġbehav": 3389,
      "Ġdeath": 3390,
      "ico": 3391,
      "uit": 3392,
      "Ġdecided": 3393,
      "Ġcharg": 3394,
      "All": 3395,
      "hop": 3396,
      "Ġhands": 3397,
      "lec": 3398,
      "Ġinterested": 3399,
      "Ġvalues": 3400,
      "aries": 3401,
      "Ġdiv": 3402,
      "Ġtowards": 3403,
      "Ġfair": 3404,
      "Ġstock": 3405,
      "ero": 3406,
      "ID": 3407,
      "Ġlimited": 3408,
      "Ġ90": 3409,
      "Ġâī¤": 3410,
      "ffee": 3411,
      "Ġmyself": 3412,
      "Ġdifference": 3413,
      "tember": 3414,
      "Ġsem": 3415,
      "Ġparents": 3416,
      "ĠFree": 3417,
      "Ġinvestig": 3418,
      "ological": 3419,
      "enty": 3420,
      "ĠDav": 3421,
      "ĠAcc": 3422,
      "AP": 3423,
      "ca": 3424,
      "like": 3425,
      "ĠChina": 3426,
      "ĠDirect": 3427,
      "Ġdeli": 3428,
      "iol": 3429,
      "My": 3430,
      "amed": 3431,
      "uate": 3432,
      "iding": 3433,
      "ffer": 3434,
      "Ġdry": 3435,
      "hes": 3436,
      "Ġhtt": 3437,
      "inc": 3438,
      "ĠBlack": 3439,
      "Ġwarm": 3440,
      "rel": 3441,
      "vant": 3442,
      "vey": 3443,
      "Ġcateg": 3444,
      "Ġfab": 3445,
      "haps": 3446,
      "Ġprem": 3447,
      "ĠIm": 3448,
      "uary": 3449,
      "ĠChristmas": 3450,
      "ctober": 3451,
      "Ġcreating": 3452,
      "Ġhous": 3453,
      "Ġai": 3454,
      "EL": 3455,
      "ĠIN": 3456,
      "âĢĿ.": 3457,
      "Ġwonderful": 3458,
      "asons": 3459,
      "ĠÎ»": 3460,
      "Ġrelease": 3461,
      "ips": 3462,
      "Ġsubst": 3463,
      "ran": 3464,
      "Ġ?": 3465,
      "ĠTV": 3466,
      "Ġbound": 3467,
      "ĭáħ": 3468,
      "Ġstarting": 3469,
      "Ġprevent": 3470,
      "ĠBro": 3471,
      "efore": 3472,
      "ronic": 3473,
      "ani": 3474,
      "Ġnature": 3475,
      "Ġ70": 3476,
      "enge": 3477,
      "une": 3478,
      "21": 3479,
      "Ġindepend": 3480,
      "Ġconsult": 3481,
      "Ġul": 3482,
      "ores": 3483,
      "ĠAlso": 3484,
      "ĠGoogle": 3485,
      "Ġindic": 3486,
      "Ġload": 3487,
      "Ch": 3488,
      "uly": 3489,
      "ĠAg": 3490,
      "isions": 3491,
      "ete": 3492,
      "Ġaltern": 3493,
      "Ġhear": 3494,
      "Ġgas": 3495,
      "Ġadvant": 3496,
      "ĠWar": 3497,
      "à¤": 3498,
      "ÑĤ": 3499,
      "aling": 3500,
      "weet": 3501,
      "ught": 3502,
      "yes": 3503,
      "ford": 3504,
      "Ġsurpr": 3505,
      "At": 3506,
      "Ex": 3507,
      "Ġsuccessful": 3508,
      "ĠâĨĴ": 3509,
      "ĠLondon": 3510,
      "ĠAfrica": 3511,
      "Ġdiag": 3512,
      "Ġneigh": 3513,
      "akes": 3514,
      "istics": 3515,
      "Ġcalc": 3516,
      "uses": 3517,
      "Ġbio": 3518,
      "ilies": 3519,
      "eek": 3520,
      "Ġheat": 3521,
      "Ġsurr": 3522,
      "Ġlimit": 3523,
      "Ġobserv": 3524,
      "Ġrev": 3525,
      "Ġeval": 3526,
      "Ġblock": 3527,
      "ulated": 3528,
      "uted": 3529,
      "IL": 3530,
      "olute": 3531,
      "ĠSan": 3532,
      "ĠMus": 3533,
      "Ġinflu": 3534,
      "Ġclient": 3535,
      "ĠJanuary": 3536,
      "eas": 3537,
      "Ġmessage": 3538,
      "Ġindividuals": 3539,
      "Ġguide": 3540,
      "Ġavoid": 3541,
      "Ġconstant": 3542,
      "Ġunderstanding": 3543,
      "Ġassociated": 3544,
      "Ġenha": 3545,
      "Ġstrateg": 3546,
      "Ġfirm": 3547,
      "Ġdefinitely": 3548,
      "ĠGener": 3549,
      "ibly": 3550,
      "oming": 3551,
      "Ġthinking": 3552,
      "ĠCe": 3553,
      "Ġconduct": 3554,
      "ett": 3555,
      "hold": 3556,
      "ida": 3557,
      "Ġeffects": 3558,
      "ĠTechn": 3559,
      "Ġtransfer": 3560,
      "ares": 3561,
      "Ġcommercial": 3562,
      "phe": 3563,
      "ĠRed": 3564,
      "Ġnormal": 3565,
      "Ġslow": 3566,
      "mark": 3567,
      "nish": 3568,
      "Ġbot": 3569,
      "Ġprogress": 3570,
      "orge": 3571,
      "Ġinform": 3572,
      "Ġposted": 3573,
      "ague": 3574,
      "Ġexactly": 3575,
      "Ġappropri": 3576,
      "col": 3577,
      "IG": 3578,
      "itor": 3579,
      "Ġfire": 3580,
      "Ġcarry": 3581,
      "ĠJuly": 3582,
      "Ġbasis": 3583,
      "Ġsun": 3584,
      "Ġproced": 3585,
      "Ġsupply": 3586,
      "PS": 3587,
      "Ġ<": 3588,
      "Ġplaces": 3589,
      "onstr": 3590,
      "Ġhour": 3591,
      "Ġpartners": 3592,
      "fter": 3593,
      "Ġuses": 3594,
      "Ġconvers": 3595,
      "ige": 3596,
      "nel": 3597,
      "Ġattemp": 3598,
      "Ġep": 3599,
      "omi": 3600,
      "urg": 3601,
      "Ġclos": 3602,
      "Ġpane": 3603,
      "ĠSeptember": 3604,
      "Ġdrug": 3605,
      "Ġvehicle": 3606,
      "Ġdegree": 3607,
      "Ġassess": 3608,
      "ef": 3609,
      "ued": 3610,
      "Ġstress": 3611,
      "Ġweekend": 3612,
      "ibr": 3613,
      "Ġbusinesses": 3614,
      "ĠFace": 3615,
      "ĠSund": 3616,
      "emb": 3617,
      "ĠEvery": 3618,
      "Ġformer": 3619,
      "ategy": 3620,
      "ya": 3621,
      "ont": 3622,
      "rap": 3623,
      "Ġpressure": 3624,
      "Ġsometimes": 3625,
      "ray": 3626,
      "Ġattend": 3627,
      "ĠOctober": 3628,
      "Ġopportunities": 3629,
      "Ġdete": 3630,
      "Ġpictures": 3631,
      "Ñģ": 3632,
      "Ġmid": 3633,
      "Ġwrong": 3634,
      "ches": 3635,
      "Ġbecame": 3636,
      "Ġblue": 3637,
      "Ġang": 3638,
      "Ġ34": 3639,
      "Ġroll": 3640,
      "eal": 3641,
      "Ġproduc": 3642,
      "Ġaccur": 3643,
      "ovember": 3644,
      "Ð½": 3645,
      "Ġacqu": 3646,
      "pping": 3647,
      "ĠFirst": 3648,
      "Ġhotel": 3649,
      "ÑĢ": 3650,
      "Ġtick": 3651,
      "house": 3652,
      "Ġsus": 3653,
      "ĠThanks": 3654,
      "Ġentry": 3655,
      "Ġdro": 3656,
      "ĠÏĢ": 3657,
      "Ġprofession": 3658,
      "Ġhealthy": 3659,
      "Ġimpress": 3660,
      "hous": 3661,
      "Ġdress": 3662,
      "Ġgets": 3663,
      "Ġsituation": 3664,
      "ipe": 3665,
      "Ġmoving": 3666,
      "Ġactivity": 3667,
      "ĠWas": 3668,
      "ION": 3669,
      "ĠTHE": 3670,
      "Ġblood": 3671,
      "Ġemployees": 3672,
      "ĠBrit": 3673,
      "ios": 3674,
      "Ġru": 3675,
      "ĠGl": 3676,
      "ĠFriday": 3677,
      "Ġsn": 3678,
      "Ġpromot": 3679,
      "ĠMr": 3680,
      "ĠGroup": 3681,
      "Ġrelationship": 3682,
      "ĠOffice": 3683,
      "Ġmm": 3684,
      "Ġband": 3685,
      "bit": 3686,
      "Ġcampa": 3687,
      "Ġbegan": 3688,
      "Ġdouble": 3689,
      "Ġlength": 3690,
      "Ġdark": 3691,
      "eness": 3692,
      "Ġdim": 3693,
      "ĠEl": 3694,
      "respond": 3695,
      "Ġcab": 3696,
      "reci": 3697,
      "Ġresponse": 3698,
      "Ġtele": 3699,
      "Ġsold": 3700,
      "Ġapproxim": 3701,
      "Ġextrem": 3702,
      "Ġgrowing": 3703,
      "istry": 3704,
      "Ġcourt": 3705,
      "Ġpurpose": 3706,
      "ÃĹ": 3707,
      "Ġinternet": 3708,
      "ĠUp": 3709,
      "US": 3710,
      "Ġ196": 3711,
      "ĠII": 3712,
      "encies": 3713,
      "Ġpublished": 3714,
      "'d": 3715,
      "Ġuseful": 3716,
      "ville": 3717,
      "Ġled": 3718,
      "yr": 3719,
      "anger": 3720,
      "ĠService": 3721,
      "Ġsleep": 3722,
      "Ġspot": 3723,
      "Ġ2009": 3724,
      "band": 3725,
      "erso": 3726,
      "Ġsell": 3727,
      "Ġessential": 3728,
      "Ġaspect": 3729,
      "key": 3730,
      "mine": 3731,
      "Ġclub": 3732,
      "ĠDecember": 3733,
      "ĠHol": 3734,
      "Ġhop": 3735,
      "Ġdream": 3736,
      "ik": 3737,
      "Ġaward": 3738,
      "iforn": 3739,
      "Xiv": 3740,
      "Ġdevices": 3741,
      "Ġbirth": 3742,
      "Ġdist": 3743,
      "Ġexerc": 3744,
      "ror": 3745,
      "Ġunc": 3746,
      "Ġeye": 3747,
      "Ġtransport": 3748,
      "ĠMost": 3749,
      "Ġrates": 3750,
      "Ġbenefit": 3751,
      "One": 3752,
      "Ġbra": 3753,
      "nos": 3754,
      "Ġstuff": 3755,
      "ĠDepartment": 3756,
      "Ġrights": 3757,
      "Ġlines": 3758,
      "Ġmechan": 3759,
      "Ġparame": 3760,
      "Ġchurch": 3761,
      "gar": 3762,
      "Ġbasic": 3763,
      "Ġwait": 3764,
      "Ġpool": 3765,
      "ider": 3766,
      "itter": 3767,
      "yt": 3768,
      "Ġhar": 3769,
      "zy": 3770,
      "Ġinvestment": 3771,
      "order": 3772,
      "ycle": 3773,
      "ĠAct": 3774,
      "Ġoffering": 3775,
      "ube": 3776,
      "Gr": 3777,
      "ser": 3778,
      "10": 3779,
      "Ġsty": 3780,
      "aight": 3781,
      "Ġreduce": 3782,
      "Ġnumer": 3783,
      "Ġcertainly": 3784,
      "aturday": 3785,
      "icks": 3786,
      "iling": 3787,
      "gen": 3788,
      "Ġ2008": 3789,
      "door": 3790,
      "nning": 3791,
      "Ġfurniture": 3792,
      "ĠSpr": 3793,
      "Ġgoals": 3794,
      "Ġadult": 3795,
      "sych": 3796,
      "nding": 3797,
      "Ġadjust": 3798,
      "works": 3799,
      "Ġmode": 3800,
      "change": 3801,
      "Ġ...": 3802,
      "ĠNovember": 3803,
      "Ġstage": 3804,
      "ifornia": 3805,
      "ĠDon": 3806,
      "ĠEs": 3807,
      "Ġborn": 3808,
      "Ġideal": 3809,
      "izations": 3810,
      "Ġfamilies": 3811,
      "OL": 3812,
      "Ġmonit": 3813,
      "ĠPresident": 3814,
      "ĠAng": 3815,
      "etic": 3816,
      "body": 3817,
      "ĠNet": 3818,
      "Ġmeaning": 3819,
      "porate": 3820,
      "inger": 3821,
      "Ġchanne": 3822,
      "Ġoverall": 3823,
      "tia": 3824,
      "Ġbedroom": 3825,
      "ecause": 3826,
      "Ġing": 3827,
      "more": 3828,
      "uk": 3829,
      "ĠRuss": 3830,
      "Ġeffort": 3831,
      "iety": 3832,
      "Ġbeginning": 3833,
      "Ġfunctions": 3834,
      "ĠGet": 3835,
      "Ġsmart": 3836,
      "Ġselection": 3837,
      "ordi": 3838,
      "ĠJapa": 3839,
      "AD": 3840,
      "Ġpaid": 3841,
      "Ġreleased": 3842,
      "Ġcook": 3843,
      "Ġexisting": 3844,
      "Ġproperties": 3845,
      "lear": 3846,
      "Ġimm": 3847,
      "Ġfiles": 3848,
      "RE": 3849,
      "ederal": 3850,
      "leg": 3851,
      "Ġnut": 3852,
      "Ġcash": 3853,
      "Ġhistor": 3854,
      "aker": 3855,
      "Ġincreasing": 3856,
      "Ġmap": 3857,
      "Ġcat": 3858,
      "Ġeasier": 3859,
      "olf": 3860,
      "Ġbrow": 3861,
      "za": 3862,
      "Ġaccomp": 3863,
      "bruary": 3864,
      "Ġinstruct": 3865,
      "Ġcorrespond": 3866,
      "Ġappreci": 3867,
      "ĠBusiness": 3868,
      "ĠOt": 3869,
      "Ġlots": 3870,
      "Ġfelt": 3871,
      "Ġloved": 3872,
      "ashion": 3873,
      "Ġdemonstr": 3874,
      "Ġsouth": 3875,
      "lusive": 3876,
      "Ġdamage": 3877,
      "ãĥ": 3878,
      "Ġnumbers": 3879,
      "Ġdelivery": 3880,
      "ĠKing": 3881,
      "ĠChar": 3882,
      "ati": 3883,
      "Ġprincip": 3884,
      "ĠâĬ": 3885,
      "ĠSince": 3886,
      "ĠSpec": 3887,
      "estiv": 3888,
      "Ġgarden": 3889,
      "orary": 3890,
      "After": 3891,
      "Ġba": 3892,
      "Ġeat": 3893,
      "Ġtried": 3894,
      "word": 3895,
      "mitted": 3896,
      "Ġreported": 3897,
      "aller": 3898,
      "ras": 3899,
      "Ġcomfortable": 3900,
      "Ġutil": 3901,
      "ounced": 3902,
      "Ġinterview": 3903,
      "oul": 3904,
      "ox": 3905,
      "ert": 3906,
      "ĠMag": 3907,
      "ĠPho": 3908,
      "ĠOut": 3909,
      "late": 3910,
      "40": 3911,
      "Ġexcept": 3912,
      "add": 3913,
      "Ġ48": 3914,
      "off": 3915,
      "Ġoffered": 3916,
      "gn": 3917,
      "eement": 3918,
      "Ġgave": 3919,
      "Ġhosp": 3920,
      "ĠAugust": 3921,
      "Ġafford": 3922,
      "Ġrelax": 3923,
      "Ġbank": 3924,
      "Ġtrade": 3925,
      "Wh": 3926,
      "Ġstraight": 3927,
      "ĠWindows": 3928,
      "Ġserve": 3929,
      "ĠResearch": 3930,
      "Ġgift": 3931,
      "Ġfeeling": 3932,
      "Ġjud": 3933,
      "iced": 3934,
      "field": 3935,
      "Ġuns": 3936,
      "ĠServices": 3937,
      "ĠFacebook": 3938,
      "Ġsav": 3939,
      "ande": 3940,
      "Ġplus": 3941,
      "ĠDesign": 3942,
      "yst": 3943,
      "Ġadvice": 3944,
      "ula": 3945,
      "Ġabsolute": 3946,
      "esus": 3947,
      "ĠSunday": 3948,
      "Ġjoin": 3949,
      "Ġbey": 3950,
      "Ġ38": 3951,
      "ĠLaw": 3952,
      "ĠIS": 3953,
      "Ġbeyond": 3954,
      "ĠGreat": 3955,
      "Ġplaye": 3956,
      "ĠSol": 3957,
      "oday": 3958,
      "Ġplayer": 3959,
      "Ġble": 3960,
      "Ġwindow": 3961,
      "Ġfeet": 3962,
      "ok": 3963,
      "Ġwedding": 3964,
      "lation": 3965,
      "Ġcompared": 3966,
      "ĠSaturday": 3967,
      "eory": 3968,
      "Ġtruly": 3969,
      "Ġguaran": 3970,
      "heory": 3971,
      "ecutive": 3972,
      "Ġlarger": 3973,
      "Ġcandid": 3974,
      "Ġpros": 3975,
      "Ġmiles": 3976,
      "ĠCompany": 3977,
      "Ġplayed": 3978,
      "Ġobt": 3979,
      "Ġbeach": 3980,
      "30": 3981,
      "Ġpair": 3982,
      "ĠÂ£": 3983,
      "Ġowners": 3984,
      "Ġinstit": 3985,
      "aye": 3986,
      "lim": 3987,
      "Ġdesig": 3988,
      "Ġbi": 3989,
      "ĠCollege": 3990,
      "Ġcomment": 3991,
      "Ġwasn": 3992,
      "No": 3993,
      "Ġswitch": 3994,
      "âĢĵ": 3995,
      "ĠEuropea": 3996,
      "Ġsignal": 3997,
      "Ġclaim": 3998,
      "ĠEuropean": 3999,
      "Ġstrategy": 4000,
      "Ġemb": 4001,
      "Ġelectric": 4002,
      "Ġspent": 4003,
      "Ġbottom": 4004,
      "ĠÎ²": 4005,
      "umi": 4006,
      "Ġlargest": 4007,
      "Ġ37": 4008,
      "Ġwind": 4009,
      "Ġbudget": 4010,
      "Ġbaby": 4011,
      "ĠSupp": 4012,
      "Ġbathroom": 4013,
      "Ġsurround": 4014,
      "Ġcollege": 4015,
      "Ġcompleted": 4016,
      "ĠProf": 4017,
      "Ġcreative": 4018,
      "Ġregarding": 4019,
      "rep": 4020,
      "Ġculture": 4021,
      "Ġmine": 4022,
      "Ġappropriate": 4023,
      "ĠCalifornia": 4024,
      "Ġsteps": 4025,
      "pite": 4026,
      "ault": 4027,
      "ulate": 4028,
      "Cl": 4029,
      "ĠGold": 4030,
      "ĠÏĥ": 4031,
      "áħ¡": 4032,
      "ĠMor": 4033,
      "EO": 4034,
      "Ġelements": 4035,
      "Ġthanks": 4036,
      "night": 4037,
      "titute": 4038,
      "Ġschools": 4039,
      "ipped": 4040,
      "Ġcoffee": 4041,
      "Ġheard": 4042,
      "Ġitem": 4043,
      "Ġadvert": 4044,
      "cription": 4045,
      "Ġcri": 4046,
      "Ġstrength": 4047,
      "atively": 4048,
      "Ġliter": 4049,
      "Ġpayment": 4050,
      "Ġhomes": 4051,
      "Ġstories": 4052,
      "Ġpolitical": 4053,
      "Ġexperienced": 4054,
      "Ġtheory": 4055,
      "ink": 4056,
      "Ġnorth": 4057,
      "ĠEven": 4058,
      "Ġstudies": 4059,
      "Ġtrend": 4060,
      "Ġobtain": 4061,
      "wide": 4062,
      "Ġtend": 4063,
      "ĠÃĹ": 4064,
      "Ġdynam": 4065,
      "atically": 4066,
      "Ġreve": 4067,
      "ĠFebruary": 4068,
      "Ġextremely": 4069,
      "tian": 4070,
      "Ġwid": 4071,
      "Ġincreased": 4072,
      "enn": 4073,
      "useum": 4074,
      "Ġmother": 4075,
      "MS": 4076,
      "roid": 4077,
      "ĠStreet": 4078,
      "Ġcold": 4079,
      "ĠBest": 4080,
      "Ġinitial": 4081,
      "Ġconfir": 4082,
      "ened": 4083,
      "Ġbroad": 4084,
      "Ġarrang": 4085,
      "Ġchem": 4086,
      "Ġcards": 4087,
      "Ġbrought": 4088,
      "bon": 4089,
      "ĠFlor": 4090,
      "Ġspirit": 4091,
      "uma": 4092,
      "Ġfinally": 4093,
      "IP": 4094,
      "Ġauto": 4095,
      "Ġimmediately": 4096,
      "isc": 4097,
      "Ġdead": 4098,
      "Ġannual": 4099,
      "eserv": 4100,
      "ourney": 4101,
      "Ġeyes": 4102,
      "ĠAny": 4103,
      "Ġord": 4104,
      "ĠMany": 4105,
      "Ġexhib": 4106,
      "Ġcollabor": 4107,
      "âĢ¢": 4108,
      "Ġcontains": 4109,
      "ĠProgram": 4110,
      "Ġsort": 4111,
      "ĠConference": 4112,
      "ita": 4113,
      "Ġbatter": 4114,
      "That": 4115,
      "ologies": 4116,
      "ĠEast": 4117,
      "vest": 4118,
      "Ġweather": 4119,
      "ĠiP": 4120,
      "uration": 4121,
      "Ġ300": 4122,
      "Ġparticularly": 4123,
      "rry": 4124,
      "Ġwine": 4125,
      "town": 4126,
      "Ġur": 4127,
      "enior": 4128,
      "Ġcapac": 4129,
      "Ġtemperature": 4130,
      "Ġnotice": 4131,
      "ĠCanada": 4132,
      "ĠJe": 4133,
      "rench": 4134,
      "Ġresponsible": 4135,
      "Ġstar": 4136,
      "ĠAp": 4137,
      "Ġmaybe": 4138,
      "ĠGood": 4139,
      "Ġmovie": 4140,
      "Ġfant": 4141,
      "isco": 4142,
      "ĠLa": 4143,
      "ĠAC": 4144,
      "gor": 4145,
      "Ġconnection": 4146,
      "Ġrequires": 4147,
      "ĠPC": 4148,
      "acement": 4149,
      "ĠâĪĤ": 4150,
      "Ġeconomic": 4151,
      "Ġpa": 4152,
      "bu": 4153,
      "Is": 4154,
      "cel": 4155,
      "ires": 4156,
      "Ġcommunication": 4157,
      "ĠAu": 4158,
      "Ġ75": 4159,
      "ief": 4160,
      "ĠAssociation": 4161,
      "Ġviol": 4162,
      "Ġthank": 4163,
      "Ġreviews": 4164,
      "Ġfight": 4165,
      "ications": 4166,
      "Ġrules": 4167,
      "Ġpen": 4168,
      "Ġdetermi": 4169,
      "Ġreflect": 4170,
      "Ġ99": 4171,
      "Ġchanged": 4172,
      "11": 4173,
      "ĠJesus": 4174,
      "Ġemot": 4175,
      "ĠBel": 4176,
      "ĠMond": 4177,
      "ĠLear": 4178,
      "Ġrepair": 4179,
      "Ġpet": 4180,
      "Ġfish": 4181,
      "ĠIT": 4182,
      "Ġchallenge": 4183,
      "Ġcritical": 4184,
      "ĠEach": 4185,
      "ĠJournal": 4186,
      "Ġimag": 4187,
      "Ġmaster": 4188,
      "refore": 4189,
      "Ġsoci": 4190,
      "ĠWell": 4191,
      "Ġpieces": 4192,
      "erefore": 4193,
      "22": 4194,
      "Ġteams": 4195,
      "LE": 4196,
      "Ġhelping": 4197,
      "ĠCap": 4198,
      "ĠMac": 4199,
      "Ġbackground": 4200,
      "Ġflav": 4201,
      "herefore": 4202,
      "Ġspi": 4203,
      "Ġauth": 4204,
      "Ġconven": 4205,
      "icious": 4206,
      "Ġcapital": 4207,
      "ĠSee": 4208,
      "Ġpowerful": 4209,
      "vis": 4210,
      "Ġappoint": 4211,
      "Ġmill": 4212,
      "etch": 4213,
      "Ġfat": 4214,
      "Ġestablished": 4215,
      "Ġah": 4216,
      "ĠÎ³": 4217,
      "Ġcapt": 4218,
      "ĠPhil": 4219,
      "icip": 4220,
      "ĠScience": 4221,
      "Ġprotection": 4222,
      "Ġsteel": 4223,
      "esome": 4224,
      "Ġthous": 4225,
      "Her": 4226,
      "Ġtherefore": 4227,
      "itary": 4228,
      "Ġgreater": 4229,
      "Ġ39": 4230,
      "Ġonto": 4231,
      "andom": 4232,
      "Ġson": 4233,
      "Ġaren": 4234,
      "Ġarchitect": 4235,
      "Ġ2007": 4236,
      "Ġbutton": 4237,
      "lying": 4238,
      "Ġbul": 4239,
      "Ġlack": 4240,
      "ĠÎ´": 4241,
      "Ġrespond": 4242,
      "Ġpresented": 4243,
      "Ġpatient": 4244,
      "ouncil": 4245,
      "Ġhighest": 4246,
      "ĠInternet": 4247,
      "Ġscience": 4248,
      "ĠGreen": 4249,
      "aughter": 4250,
      "enance": 4251,
      "ĠThank": 4252,
      "tle": 4253,
      "Ġ!": 4254,
      "Ġrespective": 4255,
      "erap": 4256,
      "Ġflex": 4257,
      "herap": 4258,
      "Ġmanage": 4259,
      "Ġtag": 4260,
      "Ġturned": 4261,
      "Ġallowed": 4262,
      "ĠProd": 4263,
      "ines": 4264,
      "ĠAm": 4265,
      "affic": 4266,
      "ĠST": 4267,
      "Ġtips": 4268,
      "Ġ{": 4269,
      "force": 4270,
      "Ġserved": 4271,
      "undred": 4272,
      "cast": 4273,
      "Ġalthough": 4274,
      "Ġmemory": 4275,
      "Ġadap": 4276,
      "Ġletter": 4277,
      "Ġessay": 4278,
      "ented": 4279,
      "fit": 4280,
      "Ġpoly": 4281,
      "ĠClass": 4282,
      "Ġrich": 4283,
      "Ġupdate": 4284,
      "ĠarXiv": 4285,
      "nia": 4286,
      "eds": 4287,
      "Ġnearly": 4288,
      "amin": 4289,
      "Ġreports": 4290,
      "Ġcasino": 4291,
      "nion": 4292,
      "Ġmetal": 4293,
      "lands": 4294,
      "Ġsmooth": 4295,
      "ĠAustralia": 4296,
      "eting": 4297,
      "estern": 4298,
      "Ġbow": 4299,
      "ĠRet": 4300,
      "self": 4301,
      "Ġviews": 4302,
      "Ġvill": 4303,
      "Ġcamera": 4304,
      "Ġincome": 4305,
      "ĠAnn": 4306,
      "Ġserver": 4307,
      "dom": 4308,
      "Â®": 4309,
      "bum": 4310,
      "Ġsust": 4311,
      "ĠWhite": 4312,
      "iant": 4313,
      "ĠImp": 4314,
      "Î±": 4315,
      "minal": 4316,
      "ado": 4317,
      "Ġsolid": 4318,
      "IM": 4319,
      "Ġdisease": 4320,
      "che": 4321,
      "ĠPla": 4322,
      "ÂŃ": 4323,
      "Ġteaching": 4324,
      "Ġmiddle": 4325,
      "Ġsweet": 4326,
      "ĠItal": 4327,
      "lete": 4328,
      "Ġtraffic": 4329,
      "Ġslight": 4330,
      "Ġtitle": 4331,
      "Ġ],": 4332,
      "Ġshape": 4333,
      "Ġsharing": 4334,
      "ĠHall": 4335,
      "Ġdefined": 4336,
      "Ġva": 4337,
      "Ġeffici": 4338,
      "Ġdistribution": 4339,
      "ĠCouncil": 4340,
      "ĠDavid": 4341,
      "raw": 4342,
      "Ġadvantage": 4343,
      "int": 4344,
      "Ġlands": 4345,
      "gorith": 4346,
      "cr": 4347,
      "Ġerror": 4348,
      "Ġsuffer": 4349,
      "Ġpark": 4350,
      "Ġgenerally": 4351,
      "Ġclasses": 4352,
      "Ġcounter": 4353,
      "Ġwear": 4354,
      "ĠKe": 4355,
      "Ġsets": 4356,
      "ĠOth": 4357,
      "Ġknew": 4358,
      "Ġgrand": 4359,
      "Ġoccas": 4360,
      "Ġnation": 4361,
      "ĠFound": 4362,
      "yl": 4363,
      "ils": 4364,
      "tine": 4365,
      "Ġsaying": 4366,
      "Ġsports": 4367,
      "venue": 4368,
      "--": 4369,
      "ĠBoard": 4370,
      "ayer": 4371,
      "Ġdiscount": 4372,
      "ĠMonday": 4373,
      "Ġdriving": 4374,
      "iff": 4375,
      "Ġahead": 4376,
      "ordin": 4377,
      "Ġdetermine": 4378,
      "Ġexter": 4379,
      "ench": 4380,
      "Ġrock": 4381,
      "ugg": 4382,
      "Ġhelped": 4383,
      "Ġtechnical": 4384,
      "ĠLo": 4385,
      "Ġtree": 4386,
      "iverse": 4387,
      "Ġjourney": 4388,
      "Ġearlier": 4389,
      "cape": 4390,
      "Ġselected": 4391,
      "Ġheavy": 4392,
      "ĠEduc": 4393,
      "Ġincred": 4394,
      "Ġactual": 4395,
      "Ġwhose": 4396,
      "Ġdirection": 4397,
      "aks": 4398,
      "ivil": 4399,
      "Ġevidence": 4400,
      "Ġwants": 4401,
      "aled": 4402,
      "EM": 4403,
      "Ġfinished": 4404,
      "ĠÎ¸": 4405,
      "Ġalone": 4406,
      "Ġrob": 4407,
      "Ġspread": 4408,
      "Ġrace": 4409,
      "Ġannounced": 4410,
      "Ġreasons": 4411,
      "áĦĭáħ": 4412,
      "Ġthus": 4413,
      "Ġprimary": 4414,
      "mail": 4415,
      "Ġscient": 4416,
      "Ġestate": 4417,
      "ensity": 4418,
      "Ġ42": 4419,
      "Ġtechniques": 4420,
      "ĠSub": 4421,
      "Ġcolors": 4422,
      "ĠDown": 4423,
      "Ġtask": 4424,
      "Ġincor": 4425,
      "Ġremove": 4426,
      "phone": 4427,
      "bra": 4428,
      "nity": 4429,
      "Ġopi": 4430,
      "ĠPort": 4431,
      "Ġreli": 4432,
      "Ġdrop": 4433,
      "Ġrooms": 4434,
      "Ġforms": 4435,
      "unk": 4436,
      "ĠBer": 4437,
      "Ġdoub": 4438,
      "Ġforce": 4439,
      "Ġ55": 4440,
      "ady": 4441,
      "Ġdistance": 4442,
      "nf": 4443,
      "Ġque": 4444,
      "ĠOnce": 4445,
      "Ġhor": 4446,
      "ipping": 4447,
      "ĠManagement": 4448,
      "Ġcovered": 4449,
      "ĠOver": 4450,
      "An": 4451,
      "ÌĢ": 4452,
      "¿½": 4453,
      "Ġstream": 4454,
      "Ġwoman": 4455,
      "Ġfriendly": 4456,
      "Ġjobs": 4457,
      "!!!": 4458,
      "These": 4459,
      "ograph": 4460,
      "BC": 4461,
      "gment": 4462,
      "Ġroof": 4463,
      "text": 4464,
      "RO": 4465,
      "Ġmaximum": 4466,
      "ĠPost": 4467,
      "Ġexplore": 4468,
      "apers": 4469,
      "Ġscen": 4470,
      "Ġapplied": 4471,
      "Ġrelevant": 4472,
      "Ġmoved": 4473,
      "Ġlibr": 4474,
      "Ġstation": 4475,
      "Ġfollowed": 4476,
      "ĠEngine": 4477,
      "Ġrestr": 4478,
      "lam": 4479,
      "ocr": 4480,
      "osition": 4481,
      "Ġargu": 4482,
      "Ġlooked": 4483,
      "Ar": 4484,
      "Ġhandle": 4485,
      "ano": 4486,
      "ĠMil": 4487,
      "Ġshopping": 4488,
      "ĠCas": 4489,
      "isation": 4490,
      "ews": 4491,
      "Ġindependent": 4492,
      "Ġdemand": 4493,
      "ĠRead": 4494,
      "Ġ04": 4495,
      "Ġshared": 4496,
      "Ġagree": 4497,
      "tru": 4498,
      "Ġguid": 4499,
      "Ġcheap": 4500,
      "ĠMat": 4501,
      "Ġdescribed": 4502,
      "otes": 4503,
      "coming": 4504,
      "Ġowner": 4505,
      "Ġexperiences": 4506,
      "ĠMicro": 4507,
      "Ġcolour": 4508,
      "Ġ41": 4509,
      "Ġassign": 4510,
      "Ġadop": 4511,
      "\",": 4512,
      "Ġcentral": 4513,
      "Ġfactors": 4514,
      "Ġholiday": 4515,
      "tivity": 4516,
      "ĠClub": 4517,
      "free": 4518,
      "hington": 4519,
      "Ð¾Ð": 4520,
      "ua": 4521,
      "Ġsmaller": 4522,
      "set": 4523,
      "Now": 4524,
      "Ġconnected": 4525,
      "ĠAP": 4526,
      "Ġstatement": 4527,
      "ĠOF": 4528,
      "ĠPM": 4529,
      "ushe": 4530,
      "Ġsequ": 4531,
      "llig": 4532,
      "ield": 4533,
      "ĠTex": 4534,
      "Ġvirt": 4535,
      "Ġpartner": 4536,
      "Ġbalance": 4537,
      "ĠTop": 4538,
      "estival": 4539,
      "Ġelement": 4540,
      "ocal": 4541,
      "Ġadvanced": 4542,
      "Ġpeace": 4543,
      "Ġvalid": 4544,
      "Ġ44": 4545,
      "des": 4546,
      "Ġproduced": 4547,
      "ĠYear": 4548,
      "Ġopening": 4549,
      "Ġmaintain": 4550,
      "Ġaccom": 4551,
      "Ġwelcome": 4552,
      "Ġfinding": 4553,
      "Ġvisual": 4554,
      "Ġprocesses": 4555,
      "Ġsession": 4556,
      "Ġserious": 4557,
      "Ġlisted": 4558,
      "Ġdoll": 4559,
      "ĠTri": 4560,
      "attle": 4561,
      "Ġcopy": 4562,
      "Ġchallenges": 4563,
      "Ġamp": 4564,
      "Ġscale": 4565,
      "ĠWeb": 4566,
      "fast": 4567,
      "Ġinput": 4568,
      "Ġcompar": 4569,
      "Ġanti": 4570,
      "Ġhundred": 4571,
      "Ġcertific": 4572,
      "usher": 4573,
      "Ġiniti": 4574,
      "emo": 4575,
      "ancy": 4576,
      "Ġacadem": 4577,
      "Ġ2000": 4578,
      "hael": 4579,
      "Please": 4580,
      "Ġingred": 4581,
      "ĠFrench": 4582,
      "Ġconference": 4583,
      "ĠâĢ¦": 4584,
      "ĠInstitute": 4585,
      "Ġattack": 4586,
      "ads": 4587,
      "Ġbecomes": 4588,
      "ĠSur": 4589,
      "orial": 4590,
      "uting": 4591,
      "uated": 4592,
      "ĠDel": 4593,
      "rit": 4594,
      "ĠMet": 4595,
      "Ġexam": 4596,
      "Ġorganizations": 4597,
      "Ġreserv": 4598,
      "pher": 4599,
      "80": 4600,
      "aming": 4601,
      "Ġloa": 4602,
      "usion": 4603,
      "ĠChurch": 4604,
      "wi": 4605,
      "Ġcampaign": 4606,
      "Ġwaste": 4607,
      "ĠSha": 4608,
      "UR": 4609,
      "Ġgri": 4610,
      "Ġtherap": 4611,
      "term": 4612,
      "Ġperhaps": 4613,
      "lip": 4614,
      "Ġschedule": 4615,
      "rief": 4616,
      "liance": 4617,
      "Ġoperations": 4618,
      "ĠHel": 4619,
      "Ġfear": 4620,
      "Ġmotor": 4621,
      "Ġtesting": 4622,
      "ae": 4623,
      "Ġpromo": 4624,
      "lit": 4625,
      "Ġprocessing": 4626,
      "box": 4627,
      "ĠPaul": 4628,
      "orem": 4629,
      "rate": 4630,
      "ĠSim": 4631,
      "Ġsurv": 4632,
      "Ġdedicated": 4633,
      "Ġdeveloping": 4634,
      "ban": 4635,
      "ĠSing": 4636,
      "Ġflat": 4637,
      "ym": 4638,
      "Ġformat": 4639,
      "vision": 4640,
      "Ġlinks": 4641,
      "Ġfigure": 4642,
      "igation": 4643,
      "Ġstandards": 4644,
      "umpster": 4645,
      "unt": 4646,
      "Ġcraft": 4647,
      "Ġ2006": 4648,
      "Ġremain": 4649,
      "Ġattach": 4650,
      "icate": 4651,
      "Ġaccommod": 4652,
      "Be": 4653,
      "Ġcapacity": 4654,
      "Ġpoor": 4655,
      "Ġreco": 4656,
      "enses": 4657,
      "orrow": 4658,
      "Ġcast": 4659,
      "Ġ43": 4660,
      "iet": 4661,
      "rance": 4662,
      "Ġalbum": 4663,
      "Ġpor": 4664,
      "Ġconfig": 4665,
      "ĠAma": 4666,
      "Ġconver": 4667,
      "nus": 4668,
      "loc": 4669,
      "Ġcomments": 4670,
      "Ġcancer": 4671,
      "know": 4672,
      "Ġsand": 4673,
      "su": 4674,
      "ĠSuper": 4675,
      "Ġpopulation": 4676,
      "icine": 4677,
      "Ġwinter": 4678,
      "Ġfashion": 4679,
      "Ġspring": 4680,
      "Ġbrot": 4681,
      "ĠÏģ": 4682,
      "ounce": 4683,
      "Ġ):": 4684,
      "Ġefforts": 4685,
      "Ġseven": 4686,
      "tery": 4687,
      "Ġfunctional": 4688,
      "ĠWhy": 4689,
      "Ġcomponents": 4690,
      "Ġfacilities": 4691,
      "Ġbroth": 4692,
      "Ġevening": 4693,
      "Ġprofessionals": 4694,
      "TS": 4695,
      "Ġoccur": 4696,
      "Ġguests": 4697,
      "Ġquarter": 4698,
      "ĠArch": 4699,
      "Ġcombination": 4700,
      "Ġpolice": 4701,
      "Ġdesigns": 4702,
      "care": 4703,
      "pective": 4704,
      "Ġplaced": 4705,
      "Ġloan": 4706,
      "icking": 4707,
      "ĠGeneral": 4708,
      "Ġpassion": 4709,
      "Ġspo": 4710,
      "ĠAre": 4711,
      "ouble": 4712,
      "ĠWed": 4713,
      "Ġshot": 4714,
      "Ġhelpful": 4715,
      "Ġsurge": 4716,
      "rote": 4717,
      "Ġsymp": 4718,
      "Ġbillion": 4719,
      "Ġsecure": 4720,
      "Ġwild": 4721,
      "Ġlearned": 4722,
      "Ġcit": 4723,
      "ifying": 4724,
      "ĠMake": 4725,
      "ĠJack": 4726,
      "Ġcloud": 4727,
      "Ġwife": 4728,
      "Ġmedium": 4729,
      "Ġpush": 4730,
      "Ġnamed": 4731,
      "entially": 4732,
      "icing": 4733,
      "logy": 4734,
      "Ġsho": 4735,
      "ows": 4736,
      "Ġseeing": 4737,
      "Ġtransform": 4738,
      "berg": 4739,
      "Ġhimself": 4740,
      "Re": 4741,
      "Ġvoice": 4742,
      "ished": 4743,
      "Ġmovement": 4744,
      "soft": 4745,
      "áĨ«": 4746,
      "ĠCourt": 4747,
      "ĠMal": 4748,
      "Ġeight": 4749,
      "Ġhus": 4750,
      "Ġfixed": 4751,
      "Ġtalking": 4752,
      "Ġphase": 4753,
      "Ġthreat": 4754,
      "Ġ03": 4755,
      "ĠBritish": 4756,
      "Ġlaye": 4757,
      "Ġ64": 4758,
      "ĠBay": 4759,
      "rete": 4760,
      "Ġpackage": 4761,
      "Tr": 4762,
      "ĠRoad": 4763,
      "nition": 4764,
      "Ġdriver": 4765,
      "Ġfields": 4766,
      "Ġ46": 4767,
      "ota": 4768,
      "Ġillustr": 4769,
      "Ġluck": 4770,
      "Ġgain": 4771,
      "??": 4772,
      "Ġclosed": 4773,
      "ĠBook": 4774,
      "Ġtom": 4775,
      "Ġfort": 4776,
      "Ġedge": 4777,
      "Ġoutdoor": 4778,
      "Ġadding": 4779,
      "They": 4780,
      "Ġ49": 4781,
      "ĠVol": 4782,
      "oted": 4783,
      "Ġhaven": 4784,
      "Ġhttp": 4785,
      "ĠDevelop": 4786,
      "zon": 4787,
      "pi": 4788,
      "Ġcleaning": 4789,
      "Ġseparate": 4790,
      "Ġminimum": 4791,
      "Ġvision": 4792,
      "Ġkeeping": 4793,
      "Ġfan": 4794,
      "Ġmentioned": 4795,
      "ĠDri": 4796,
      "Ġprepared": 4797,
      "Ġdining": 4798,
      "using": 4799,
      "nical": 4800,
      "ĠAnt": 4801,
      "Ġplenty": 4802,
      "gest": 4803,
      "ista": 4804,
      "Ġcompreh": 4805,
      "Ġtrain": 4806,
      "ĠVis": 4807,
      "Ġnames": 4808,
      "Ġfill": 4809,
      "abilities": 4810,
      "Ġmission": 4811,
      "ĠBen": 4812,
      "Ġrandom": 4813,
      "Ġpull": 4814,
      "ĠUSA": 4815,
      "rman": 4816,
      "Ġobtained": 4817,
      "IR": 4818,
      "Ġfore": 4819,
      "Ġbuying": 4820,
      "ta": 4821,
      "vention": 4822,
      "ĠTur": 4823,
      "urer": 4824,
      "Ġfee": 4825,
      "point": 4826,
      "Ġcells": 4827,
      "ivity": 4828,
      "ursday": 4829,
      "ĠWashington": 4830,
      "Ġoperation": 4831,
      "IV": 4832,
      "Ġcentury": 4833,
      "down": 4834,
      "Ø§": 4835,
      "Ġcatch": 4836,
      "ĠTO": 4837,
      "yp": 4838,
      "Ġdevelo": 4839,
      "Ġsector": 4840,
      "Ġice": 4841,
      "ĠPower": 4842,
      "ĠÏĨ": 4843,
      "ĠOnline": 4844,
      "Ġstatus": 4845,
      "lines": 4846,
      "Ġbright": 4847,
      "ĠCho": 4848,
      "Ġfather": 4849,
      "ĠWilli": 4850,
      "kin": 4851,
      "omb": 4852,
      "ĠBlue": 4853,
      "Ìĥ": 4854,
      "Ġcouldn": 4855,
      "ala": 4856,
      "Ġmaintenance": 4857,
      "Ġshoot": 4858,
      "Ġadvance": 4859,
      "anging": 4860,
      "ĠOb": 4861,
      "Ġplants": 4862,
      "Ġparties": 4863,
      "fa": 4864,
      "Ġcore": 4865,
      "tic": 4866,
      "Ġunits": 4867,
      "Ġgirl": 4868,
      "While": 4869,
      ".)": 4870,
      "ament": 4871,
      "ĠHa": 4872,
      "Ġdatab": 4873,
      "Ġfollows": 4874,
      "Pe": 4875,
      "ĠDistr": 4876,
      "ĠAM": 4877,
      "ĠSto": 4878,
      "Ġoperating": 4879,
      "Ġtrial": 4880,
      "Ġexperiment": 4881,
      "Ġfaith": 4882,
      "Ġune": 4883,
      "ĠOthe": 4884,
      "Ġlux": 4885,
      "ĠOther": 4886,
      "osen": 4887,
      "unning": 4888,
      "ĠÏĦ": 4889,
      "Ġ05": 4890,
      "Ġfactor": 4891,
      "ortunately": 4892,
      "ĠRiver": 4893,
      "Ġpsych": 4894,
      "Ġgone": 4895,
      "Ġnumerous": 4896,
      "ups": 4897,
      "Ġscene": 4898,
      "www": 4899,
      "Ġclassic": 4900,
      "Ġrestaurant": 4901,
      "Ġsources": 4902,
      "Ġrent": 4903,
      "Ġexperts": 4904,
      "Ġefficient": 4905,
      "enture": 4906,
      "Ġcompetition": 4907,
      "Ġcars": 4908,
      "ĠPhoto": 4909,
      "iation": 4910,
      "Ġpul": 4911,
      "Ġchair": 4912,
      "oles": 4913,
      "aine": 4914,
      "nom": 4915,
      "ĠFlorida": 4916,
      "Ġcomb": 4917,
      "ache": 4918,
      "ĠAND": 4919,
      "Ġkept": 4920,
      "ĠLake": 4921,
      "nna": 4922,
      "Ġ51": 4923,
      "Ġclim": 4924,
      "Ġpow": 4925,
      "Ġbehavior": 4926,
      "Ġvideos": 4927,
      "Ġ47": 4928,
      "ading": 4929,
      "omp": 4930,
      "Ġ02": 4931,
      "part": 4932,
      "Here": 4933,
      "Ġaudience": 4934,
      "Ġspeak": 4935,
      "ĠClick": 4936,
      "Ġscore": 4937,
      "Ġreference": 4938,
      "Ġsample": 4939,
      "rix": 4940,
      "ucing": 4941,
      "âĢĿ,": 4942,
      "rier": 4943,
      "ĠID": 4944,
      "wr": 4945,
      "Ġobvious": 4946,
      "Ġcoverage": 4947,
      "Ġoutput": 4948,
      "Ġcream": 4949,
      "anta": 4950,
      "uesday": 4951,
      "with": 4952,
      "Ġidentify": 4953,
      "Ġcommunities": 4954,
      "Ġshowing": 4955,
      "heme": 4956,
      "Ġfans": 4957,
      "ĠSil": 4958,
      "Ġsnow": 4959,
      "Ġcharacters": 4960,
      "ipes": 4961,
      "ĠFind": 4962,
      "Ġotherwise": 4963,
      "Ġ2005": 4964,
      "Ġfabric": 4965,
      "ask": 4966,
      "ĠNews": 4967,
      "Ġderi": 4968,
      "Ġfamous": 4969,
      "Ġpp": 4970,
      "Ġdiet": 4971,
      "De": 4972,
      "apes": 4973,
      "Ġvolun": 4974,
      "Ġpassed": 4975,
      "osure": 4976,
      "Ġperformed": 4977,
      "allery": 4978,
      "ficial": 4979,
      "DA": 4980,
      "ĠPress": 4981,
      "ĠInformation": 4982,
      "Ġbiggest": 4983,
      "ĠCheck": 4984,
      "Ġtaste": 4985,
      "Ġchanging": 4986,
      "Ġcra": 4987,
      "Ġolde": 4988,
      "Ġfig": 4989,
      "Ġalgorith": 4990,
      "Ġproposed": 4991,
      "ek": 4992,
      "ĠâĢ¢": 4993,
      "Ġflu": 4994,
      "fol": 4995,
      "OW": 4996,
      "ĠUse": 4997,
      "Ġworkshop": 4998,
      "Ġbrain": 4999,
      "Ġforget": 5000,
      "icken": 5001,
      "apter": 5002,
      "see": 5003,
      "ander": 5004,
      "Ġolder": 5005,
      "Si": 5006,
      "Ġpresence": 5007,
      "CC": 5008,
      "Ġexcited": 5009,
      "ette": 5010,
      "Ġruns": 5011,
      "ĠChinese": 5012,
      "ĠPlay": 5013,
      "Ġexercise": 5014,
      "ĠDa": 5015,
      "ĠTexas": 5016,
      "Ġrap": 5017,
      "ĠIndian": 5018,
      "Ġrelig": 5019,
      "eline": 5020,
      "Ġbeauty": 5021,
      "Ġmeasure": 5022,
      "Ġhusband": 5023,
      "Ġpanel": 5024,
      "Ġremains": 5025,
      "Ġwaiting": 5026,
      "Ġrot": 5027,
      "Ġbeg": 5028,
      "Ġcoach": 5029,
      "Ġvolume": 5030,
      "Ġ65": 5031,
      "Ġalternative": 5032,
      "ĠLove": 5033,
      "press": 5034,
      "nte": 5035,
      "Ġvisitors": 5036,
      "Ġtheme": 5037,
      "Ġultim": 5038,
      "Ġtruth": 5039,
      "ĠÂ±": 5040,
      "Ġremind": 5041,
      "Ġfunds": 5042,
      "Ġfantastic": 5043,
      "Ġhappens": 5044,
      "ĠRich": 5045,
      "Ġdecide": 5046,
      "uty": 5047,
      "ece": 5048,
      "ensions": 5049,
      "dy": 5050,
      "Ġnovel": 5051,
      "Ġaware": 5052,
      "Ġrepe": 5053,
      "Ġplastic": 5054,
      "Ġstone": 5055,
      "Ġjoint": 5056,
      "utation": 5057,
      "Ġconcent": 5058,
      "Ġcourses": 5059,
      "Ġagreement": 5060,
      "ĠBra": 5061,
      "ĠWater": 5062,
      "nesday": 5063,
      "ĠThursday": 5064,
      "Ġfarm": 5065,
      "illa": 5066,
      "ĠOpen": 5067,
      "ĠWord": 5068,
      "Ġgeneration": 5069,
      "ĠMount": 5070,
      "ĠLight": 5071,
      "Ġcontemp": 5072,
      "ĠEducation": 5073,
      "mos": 5074,
      "ĠAlthough": 5075,
      "Ġdesk": 5076,
      "tructure": 5077,
      "has": 5078,
      "ĠJames": 5079,
      "olic": 5080,
      "Ġupgr": 5081,
      "ĠWood": 5082,
      "60": 5083,
      "ĠBank": 5084,
      "Ġpattern": 5085,
      "Ġkn": 5086,
      "Ġnd": 5087,
      "Ġcentr": 5088,
      "Ġreality": 5089,
      "ecti": 5090,
      "Ġleads": 5091,
      "Ġnegative": 5092,
      "Ġmenu": 5093,
      "lor": 5094,
      "Ġjournal": 5095,
      "Ġradio": 5096,
      "Ġsuitable": 5097,
      "Ġstreet": 5098,
      "Ġpleas": 5099,
      "EP": 5100,
      "ĠBa": 5101,
      "ĠLife": 5102,
      "Ġtopic": 5103,
      "Ġleader": 5104,
      "Ġdetailed": 5105,
      "Ġregistered": 5106,
      "Ġdocuments": 5107,
      "Ġdirector": 5108,
      "ja": 5109,
      "Ġconstruct": 5110,
      "Ġlayer": 5111,
      "ĠWal": 5112,
      "Ġlaws": 5113,
      "Ġfem": 5114,
      "ĠBecause": 5115,
      "CH": 5116,
      "Ġ400": 5117,
      "ĠRa": 5118,
      "Ġsquare": 5119,
      "apped": 5120,
      "Ġsustain": 5121,
      "Ġwindows": 5122,
      "Ġinstallation": 5123,
      "aters": 5124,
      "Ġbought": 5125,
      "ĠCong": 5126,
      "long": 5127,
      "Ġtow": 5128,
      "ĠCamp": 5129,
      "icted": 5130,
      "uations": 5131,
      "ĠData": 5132,
      "Ġmeasur": 5133,
      "Ġbott": 5134,
      "Ġsociety": 5135,
      "hrow": 5136,
      "Ġobj": 5137,
      "antic": 5138,
      "DF": 5139,
      "ĠâĪŀ": 5140,
      "ĠPal": 5141,
      "Ġupdated": 5142,
      "cript": 5143,
      "essions": 5144,
      "fy": 5145,
      "ushing": 5146,
      "Ġhyd": 5147,
      "Ġpractices": 5148,
      "Ġmicro": 5149,
      "Ġ95": 5150,
      "Ġwrote": 5151,
      "ĠCle": 5152,
      "Ġawesome": 5153,
      "Ġbill": 5154,
      "Ġproud": 5155,
      "Ġegg": 5156,
      "ĠDirector": 5157,
      "Ġexpensive": 5158,
      "Ġposts": 5159,
      "Ġhappened": 5160,
      "den": 5161,
      "ĠMem": 5162,
      "Ġcategory": 5163,
      "Ġproof": 5164,
      "ainer": 5165,
      "SS": 5166,
      "friend": 5167,
      "Ġveget": 5168,
      "Ġabsolutely": 5169,
      "Ġlose": 5170,
      "ĠRel": 5171,
      "Ġdinner": 5172,
      "ĠSal": 5173,
      "Ġrecipe": 5174,
      "Ġresidents": 5175,
      "ĠâĢĻ": 5176,
      "netic": 5177,
      "verse": 5178,
      "Ġhors": 5179,
      "Ġsounds": 5180,
      "ifts": 5181,
      "ĠSet": 5182,
      "Ġestablish": 5183,
      "Ġgrant": 5184,
      "men": 5185,
      "ĠDem": 5186,
      "Ġcrow": 5187,
      "ĠTuesday": 5188,
      "Ġapproximately": 5189,
      "ĠSystem": 5190,
      "gency": 5191,
      "Ġexclusive": 5192,
      "Ġworkers": 5193,
      "Ġaudio": 5194,
      "amily": 5195,
      "alls": 5196,
      "Ġinstru": 5197,
      "Ġrain": 5198,
      "Ġweak": 5199,
      "ĠAv": 5200,
      "Ġbecoming": 5201,
      "ĠReview": 5202,
      "fficient": 5203,
      "Ġminute": 5204,
      "Ġ07": 5205,
      "Ġartist": 5206,
      "ĠChristian": 5207,
      "Ġguess": 5208,
      "Ġ52": 5209,
      "Ġmis": 5210,
      "ĠCusto": 5211,
      "ĠProject": 5212,
      "ĠLou": 5213,
      "ĠLord": 5214,
      "Ġlovely": 5215,
      "ĠWr": 5216,
      "Ġcalls": 5217,
      "Ġfocused": 5218,
      "Ġeconomy": 5219,
      "Ġmusc": 5220,
      "Ġenjoyed": 5221,
      "ĠHy": 5222,
      "ĠÏī": 5223,
      "Ġinternal": 5224,
      "Ġexciting": 5225,
      "ĠRob": 5226,
      "Ġcaused": 5227,
      "asy": 5228,
      "Ġbird": 5229,
      "miss": 5230,
      "Ġenhance": 5231,
      "Ġopened": 5232,
      "ĠTable": 5233,
      "Ġexpand": 5234,
      "rough": 5235,
      "ava": 5236,
      "Ġplug": 5237,
      "Ġlunch": 5238,
      "Ġfavour": 5239,
      "place": 5240,
      "ĠIsra": 5241,
      "nge": 5242,
      "ĠSum": 5243,
      "Ġmir": 5244,
      "Ġmilitary": 5245,
      "ested": 5246,
      "Ġwhatever": 5247,
      "Ġ}": 5248,
      "standing": 5249,
      "Ġdoctor": 5250,
      "ĠMary": 5251,
      "ris": 5252,
      "Ġdiscussion": 5253,
      "Ġdecr": 5254,
      "ĠShi": 5255,
      "life": 5256,
      "lon": 5257,
      "Ġrecommended": 5258,
      "Ġ08": 5259,
      "Ġsea": 5260,
      "iled": 5261,
      "Ġdance": 5262,
      "ĠHam": 5263,
      "Ġinstance": 5264,
      "RA": 5265,
      "Ġrecords": 5266,
      "Ġselling": 5267,
      "ĠApple": 5268,
      "Ġcorner": 5269,
      "ĠChild": 5270,
      "Ġdied": 5271,
      "ĠWhe": 5272,
      "Ġfees": 5273,
      "Ġstarts": 5274,
      "which": 5275,
      "ĠAnal": 5276,
      "ception": 5277,
      "non": 5278,
      "Ġinstalled": 5279,
      "ĠPublic": 5280,
      "Ġearth": 5281,
      "Ġdepos": 5282,
      "Ġnetworks": 5283,
      "Thanks": 5284,
      "Ġcos": 5285,
      "ĠPi": 5286,
      "Ġcup": 5287,
      "ĠToday": 5288,
      "ĠWednesday": 5289,
      "Ġautomatically": 5290,
      "Ġassistance": 5291,
      "Ġmeant": 5292,
      "Ġdaughter": 5293,
      "jo": 5294,
      "Ġclearly": 5295,
      "Ġdie": 5296,
      "ĠFranc": 5297,
      "Ġingredients": 5298,
      "Ġappears": 5299,
      "Ġ150": 5300,
      "Ġextensive": 5301,
      "Ġexchange": 5302,
      "II": 5303,
      "Ġdoors": 5304,
      "oga": 5305,
      "Ġinfo": 5306,
      "Ca": 5307,
      "apping": 5308,
      "ĠIsland": 5309,
      "Ġcontinued": 5310,
      "Ġteache": 5311,
      "ĠBig": 5312,
      "Ġteacher": 5313,
      "ĠEm": 5314,
      "Ġtrading": 5315,
      "arp": 5316,
      "Ġdomain": 5317,
      "avel": 5318,
      "Ġtypically": 5319,
      "Ġtrees": 5320,
      "ĠMichael": 5321,
      "Ġslightly": 5322,
      "Ġexamples": 5323,
      "Ġ09": 5324,
      "Ġthrow": 5325,
      "ĠSociety": 5326,
      "Ġlocations": 5327,
      "Ġthousands": 5328,
      "Ġunf": 5329,
      "Ġmarkets": 5330,
      "Ġstrategies": 5331,
      "Ġneighbor": 5332,
      "Ġleaves": 5333,
      "Ġcoup": 5334,
      "ĠIts": 5335,
      "ĠBal": 5336,
      "Ġbrings": 5337,
      "erm": 5338,
      "Ġseat": 5339,
      "itic": 5340,
      "arily": 5341,
      "Ġteachers": 5342,
      "ĠFR": 5343,
      "Ġdepending": 5344,
      "uable": 5345,
      "iration": 5346,
      "Ġthoughts": 5347,
      "Ġmanager": 5348,
      "ĠAL": 5349,
      "ĠStar": 5350,
      "well": 5351,
      "Ġpreviously": 5352,
      "ĠDevelopment": 5353,
      "head": 5354,
      "Ġ2004": 5355,
      "odes": 5356,
      "Ġrelationships": 5357,
      "Ġfacility": 5358,
      "eak": 5359,
      "limin": 5360,
      "erve": 5361,
      "Ġcombined": 5362,
      "Ġproperly": 5363,
      "Ġfeedback": 5364,
      "Ġwalking": 5365,
      "ĠEv": 5366,
      "ĠRoy": 5367,
      "Ġactions": 5368,
      "ĠGlo": 5369,
      "Ġwww": 5370,
      "Ġwebsites": 5371,
      "itors": 5372,
      "Ġprofile": 5373,
      "Ġtoward": 5374,
      "mes": 5375,
      "Ġinfluence": 5376,
      "Ġguys": 5377,
      "Ġshipping": 5378,
      "Ġfootball": 5379,
      "Ġrule": 5380,
      "Ġknows": 5381,
      "Ġvote": 5382,
      "craft": 5383,
      "IA": 5384,
      "hemat": 5385,
      "Ġsugar": 5386,
      "Ġinterior": 5387,
      "Ġchemical": 5388,
      "iliar": 5389,
      "ĠOh": 5390,
      "ĠInst": 5391,
      "Ġmanaged": 5392,
      "ĠCD": 5393,
      "Ġworry": 5394,
      "zer": 5395,
      "Ġshower": 5396,
      "Ġfilled": 5397,
      "Ġship": 5398,
      "ĠEngland": 5399,
      "Ġleadership": 5400,
      "Ġwash": 5401,
      "ĠAdv": 5402,
      "Ġ53": 5403,
      "Ġcontinues": 5404,
      "Ġjump": 5405,
      "Ġmajority": 5406,
      "Ġallowing": 5407,
      "Ġcontext": 5408,
      "ĠTechnology": 5409,
      "Ġholds": 5410,
      "Ġ54": 5411,
      "Ġartists": 5412,
      "Ġride": 5413,
      "Ġanimals": 5414,
      "Ġapart": 5415,
      "hick": 5416,
      "Ġintroduced": 5417,
      "ĠSer": 5418,
      "Ġhom": 5419,
      "Ġhonest": 5420,
      "ĠQue": 5421,
      "ĠEmp": 5422,
      "othes": 5423,
      "eling": 5424,
      "Ġaspects": 5425,
      "Ġovers": 5426,
      "ĠPeople": 5427,
      "Ġdecisions": 5428,
      "Ġappar": 5429,
      "Ġextend": 5430,
      "Ġyout": 5431,
      "Ġ2020": 5432,
      "tress": 5433,
      "eedom": 5434,
      "ĠTor": 5435,
      "Ġcorporate": 5436,
      "Ġpolicies": 5437,
      "Ġstores": 5438,
      "Your": 5439,
      "SP": 5440,
      "ollow": 5441,
      "Ġcompl": 5442,
      "rolled": 5443,
      "Ġcabine": 5444,
      "uled": 5445,
      "ĠCommission": 5446,
      "Ġwouldn": 5447,
      "ario": 5448,
      "Ġsupported": 5449,
      "igr": 5450,
      "ola": 5451,
      "ĠTom": 5452,
      "umber": 5453,
      "Ġseconds": 5454,
      "eets": 5455,
      "Ġpal": 5456,
      "CA": 5457,
      "ression": 5458,
      "owns": 5459,
      "ept": 5460,
      "Ġclaims": 5461,
      "umin": 5462,
      "ĠMachi": 5463,
      "ĠHote": 5464,
      "estic": 5465,
      "Ġmist": 5466,
      "ĠForm": 5467,
      "Ġpractical": 5468,
      "bing": 5469,
      "Ġcentre": 5470,
      "ĠIde": 5471,
      "ĠCommit": 5472,
      "Ġmanner": 5473,
      "Ġmort": 5474,
      "Ġleaving": 5475,
      "umption": 5476,
      "ĠTherefore": 5477,
      "ĠRepublic": 5478,
      "ENT": 5479,
      ".;": 5480,
      "ĠÎ½": 5481,
      "ĠIP": 5482,
      "lusion": 5483,
      "ican": 5484,
      "Ġ06": 5485,
      "NA": 5486,
      "Ġdepartment": 5487,
      "EEE": 5488,
      "âĦ": 5489,
      "Ġhab": 5490,
      "Ġmeasures": 5491,
      "Ġfederal": 5492,
      "Ġparking": 5493,
      "Ġenvironmental": 5494,
      "ĠTime": 5495,
      "Ġimportance": 5496,
      "Ġshowed": 5497,
      "Ġspending": 5498,
      "ĠPen": 5499,
      "ĠSun": 5500,
      "ctors": 5501,
      "Ġbusy": 5502,
      "ãĢ": 5503,
      "ĠCO": 5504,
      "Ġsenior": 5505,
      "ĠBeach": 5506,
      "how": 5507,
      "ĠProfess": 5508,
      "wa": 5509,
      "ĠMaster": 5510,
      "Ġdelicious": 5511,
      "oration": 5512,
      "ĠTrump": 5513,
      "tainment": 5514,
      "Ġrespectively": 5515,
      "Ġsecret": 5516,
      "Un": 5517,
      "umn": 5518,
      "rupt": 5519,
      "Ġpresident": 5520,
      "Ġchec": 5521,
      "td": 5522,
      "Ġtra": 5523,
      "ĠAlex": 5524,
      "bour": 5525,
      "Ġaffordable": 5526,
      "ĠMusic": 5527,
      "ĠPre": 5528,
      "list": 5529,
      "ĠRock": 5530,
      "eserve": 5531,
      "Ġhospital": 5532,
      "aser": 5533,
      "azine": 5534,
      "ĠTemp": 5535,
      "ĠâĪĨ": 5536,
      "Ġbattery": 5537,
      "ko": 5538,
      "Ġfuel": 5539,
      "ums": 5540,
      "ĠSam": 5541,
      "Ġeating": 5542,
      "Ġproceed": 5543,
      "Ġmotiv": 5544,
      "Ġrat": 5545,
      "Ġring": 5546,
      "Ġ56": 5547,
      "Ġupper": 5548,
      "Ġarticles": 5549,
      "Ġ195": 5550,
      "Ġprovider": 5551,
      "Ġ110": 5552,
      "itude": 5553,
      "Ġrub": 5554,
      "ĠAmazon": 5555,
      "Ġvehicles": 5556,
      "Ġspecifically": 5557,
      "othing": 5558,
      "bl": 5559,
      "Ġspaces": 5560,
      "bes": 5561,
      "ĠBur": 5562,
      "ĠHave": 5563,
      "lace": 5564,
      "ols": 5565,
      "ĠPay": 5566,
      "ĠEqu": 5567,
      "Ġtun": 5568,
      "Ne": 5569,
      "dered": 5570,
      "Ġintr": 5571,
      "phere": 5572,
      "ĠAcadem": 5573,
      "Ġindustrial": 5574,
      "Ġdatabase": 5575,
      "Ġserving": 5576,
      "ĠCentral": 5577,
      "made": 5578,
      "Ġcontain": 5579,
      "ĠHist": 5580,
      "Ġrid": 5581,
      "ĠCommunity": 5582,
      "ĠProduct": 5583,
      "ĠFoundation": 5584,
      ".-": 5585,
      "oney": 5586,
      "Ġinjury": 5587,
      "Ġ57": 5588,
      "Ġsymb": 5589,
      "Ġven": 5590,
      "nite": 5591,
      "BA": 5592,
      "Ġwinning": 5593,
      "Ġarm": 5594,
      "Ġdetermined": 5595,
      "Ġthick": 5596,
      "Pr": 5597,
      "Ġswim": 5598,
      "Ġunless": 5599,
      "iga": 5600,
      "Ġâī¥": 5601,
      "Ġsettings": 5602,
      "ĠSpecial": 5603,
      "outs": 5604,
      "ĠRem": 5605,
      "Ġagency": 5606,
      "UT": 5607,
      "ĠKen": 5608,
      "Ġspecies": 5609,
      "Ġwilling": 5610,
      "ei": 5611,
      "Ġprocedure": 5612,
      "ï¼": 5613,
      "tos": 5614,
      "Ġpurpos": 5615,
      "Ġputting": 5616,
      "omas": 5617,
      "Ġmostly": 5618,
      "Ġsubmit": 5619,
      "wers": 5620,
      "BS": 5621,
      "Ġsurvey": 5622,
      "Ġchannel": 5623,
      "Ġelimin": 5624,
      "Ġ2003": 5625,
      "Ġraised": 5626,
      "Ġdebt": 5627,
      "Ġparameters": 5628,
      "Ġacademic": 5629,
      "ĠMich": 5630,
      "Ġ@": 5631,
      "Ġfo": 5632,
      "idden": 5633,
      "ole": 5634,
      "LC": 5635,
      "Ġdanger": 5636,
      "ped": 5637,
      "Ġtasks": 5638,
      "ded": 5639,
      "Ġbreath": 5640,
      "Ġfruit": 5641,
      "Ġfilter": 5642,
      "rome": 5643,
      "Ġcomprehensive": 5644,
      "ireless": 5645,
      "rint": 5646,
      "oin": 5647,
      "aration": 5648,
      "Ġrd": 5649,
      "ĠWho": 5650,
      "quid": 5651,
      "Ġlibrary": 5652,
      "Ġreduced": 5653,
      "Ġjoined": 5654,
      "hab": 5655,
      "Ġbrief": 5656,
      "uman": 5657,
      "Ġforeign": 5658,
      "Ġcitiz": 5659,
      "nders": 5660,
      "Ġlights": 5661,
      "Ġfunding": 5662,
      "Ġcy": 5663,
      "arrant": 5664,
      "ĠTwo": 5665,
      "ĠTheir": 5666,
      "IF": 5667,
      "itness": 5668,
      "Ġprepare": 5669,
      "lective": 5670,
      "Ġnotes": 5671,
      "prise": 5672,
      "cont": 5673,
      "olate": 5674,
      "what": 5675,
      "ĠMex": 5676,
      "alty": 5677,
      "nect": 5678,
      "Ġended": 5679,
      "From": 5680,
      "urers": 5681,
      "uries": 5682,
      "Ġpossibly": 5683,
      "ĠIEEE": 5684,
      "Ġlisten": 5685,
      "))": 5686,
      "Ġequation": 5687,
      "ĠFig": 5688,
      "ĠSocial": 5689,
      "ĠAngel": 5690,
      "ï¿½": 5691,
      "ella": 5692,
      "Ġcm": 5693,
      "Î»": 5694,
      "Ġ59": 5695,
      "Some": 5696,
      "ĠĠ": 5697,
      "ĠGerm": 5698,
      "elle": 5699,
      "Ġspin": 5700,
      "Ġprofit": 5701,
      "rian": 5702,
      "ĠTake": 5703,
      "Ġcities": 5704,
      "Ġcoordin": 5705,
      "asting": 5706,
      "ĠFil": 5707,
      "arian": 5708,
      "ĠSk": 5709,
      "Ġwatching": 5710,
      "Ġdeals": 5711,
      "unction": 5712,
      "Ġresolution": 5713,
      "nto": 5714,
      "Ġenable": 5715,
      "Ġmental": 5716,
      "zing": 5717,
      "ĠLett": 5718,
      "Ġaid": 5719,
      "ĠGovernment": 5720,
      "Ġtotally": 5721,
      "Ġoccup": 5722,
      "da": 5723,
      "lishing": 5724,
      "Ġkm": 5725,
      "ersey": 5726,
      "ĠVir": 5727,
      "Ġtough": 5728,
      "Ġchoices": 5729,
      "Ñĥ": 5730,
      "Ġepis": 5731,
      "Ġign": 5732,
      "Ġexpertise": 5733,
      "cea": 5734,
      "aints": 5735,
      "Ġpump": 5736,
      "Ġtea": 5737,
      "Ġgirls": 5738,
      "yer": 5739,
      "ĠMicrosoft": 5740,
      "Ġchosen": 5741,
      "unct": 5742,
      "Ġfaster": 5743,
      "Ġvary": 5744,
      "By": 5745,
      "Ġcris": 5746,
      "Ġcovers": 5747,
      "ĠÎµ": 5748,
      "Ġinterpr": 5749,
      "Ġdating": 5750,
      "Ġsongs": 5751,
      "uts": 5752,
      "hon": 5753,
      "ĠCard": 5754,
      "Ġtechnologies": 5755,
      "Ġbreakfast": 5756,
      "Ġisland": 5757,
      "Ġlabor": 5758,
      "Ġzero": 5759,
      "ĠCommittee": 5760,
      "nergy": 5761,
      "Ġpurposes": 5762,
      "uality": 5763,
      "ictions": 5764,
      "Ġresponsibility": 5765,
      "Ġconcerns": 5766,
      "ii": 5767,
      "Ġresource": 5768,
      "Ġpatter": 5769,
      "osite": 5770,
      "Ġagent": 5771,
      "Ġefficiency": 5772,
      "Ġinstant": 5773,
      "Ġconstr": 5774,
      "ĠCentr": 5775,
      "Ġresol": 5776,
      "ĠNote": 5777,
      "ĠGar": 5778,
      "Ġpromote": 5779,
      "lications": 5780,
      "Ġreliable": 5781,
      "Ġupdates": 5782,
      "Ġelectronic": 5783,
      "Ġcircum": 5784,
      "Des": 5785,
      "asc": 5786,
      "Ġremoved": 5787,
      "ags": 5788,
      "Ġirr": 5789,
      "ĠMath": 5790,
      "Ġrise": 5791,
      "Ġmotion": 5792,
      "Ġchat": 5793,
      "Can": 5794,
      "Ġopinion": 5795,
      "ĠWil": 5796,
      "ĠSen": 5797,
      "Ġmissing": 5798,
      "encing": 5799,
      "Ġaccounts": 5800,
      "Ġdumpster": 5801,
      "ĠMel": 5802,
      "agers": 5803,
      "Ġattempt": 5804,
      "upp": 5805,
      "Ġcivil": 5806,
      "Ġsizes": 5807,
      "Ġreached": 5808,
      "Ġsemi": 5809,
      "ensional": 5810,
      "ĠMass": 5811,
      "ĠEle": 5812,
      "Ġimproved": 5813,
      "rene": 5814,
      "ĠÎ·": 5815,
      "ĠRad": 5816,
      "but": 5817,
      "roy": 5818,
      "Ġconfidence": 5819,
      "apos": 5820,
      "omin": 5821,
      "Com": 5822,
      "SA": 5823,
      "ĠVa": 5824,
      "Ġsport": 5825,
      "pa": 5826,
      "eens": 5827,
      "ĠWall": 5828,
      "ĠBas": 5829,
      "ius": 5830,
      "ĠDuring": 5831,
      "Ġequal": 5832,
      "Ġquantum": 5833,
      "12": 5834,
      "ĠMiss": 5835,
      "Ġdrink": 5836,
      "Ġbrands": 5837,
      "Ġgoods": 5838,
      "Ġparticipants": 5839,
      "Ġ][": 5840,
      "Ġinnovative": 5841,
      "ĠInte": 5842,
      "ĠSecurity": 5843,
      "ilit": 5844,
      "Ad": 5845,
      "umers": 5846,
      "Ġ194": 5847,
      "ĠColor": 5848,
      "Ġ85": 5849,
      "ĠAT": 5850,
      "Ġchain": 5851,
      "ilding": 5852,
      "ounter": 5853,
      "Ġlap": 5854,
      "ĠHill": 5855,
      "ĠFood": 5856,
      "Ġrating": 5857,
      "cohol": 5858,
      "pon": 5859,
      "Ġourselves": 5860,
      "itionally": 5861,
      "Ð»": 5862,
      "ĠValley": 5863,
      "Ġexplain": 5864,
      "ĠInde": 5865,
      "icago": 5866,
      "cons": 5867,
      "Ġvan": 5868,
      "ĠSpa": 5869,
      "Thank": 5870,
      "oral": 5871,
      "ĠSection": 5872,
      "Ġtransition": 5873,
      "asts": 5874,
      "Ġanywhere": 5875,
      "Ġinspired": 5876,
      "eller": 5877,
      "Ġvisiting": 5878,
      "Ġaccident": 5879,
      "Ġju": 5880,
      "Ġchoc": 5881,
      "Ġadults": 5882,
      "aped": 5883,
      "ĠDownload": 5884,
      "Add": 5885,
      "Ġspons": 5886,
      "Ġdelivered": 5887,
      "Ġgear": 5888,
      "Ġec": 5889,
      "PA": 5890,
      "ĠInt": 5891,
      "Ġvs": 5892,
      "ĠYOU": 5893,
      "Ġlighting": 5894,
      "Ġcultural": 5895,
      "Ġtail": 5896,
      "paper": 5897,
      "Ġdisp": 5898,
      "16": 5899,
      "Ġpan": 5900,
      "ĠSpe": 5901,
      "agon": 5902,
      "ĠLong": 5903,
      "Ġ58": 5904,
      "zen": 5905,
      "amond": 5906,
      "Ġencourage": 5907,
      "....": 5908,
      "ĠUN": 5909,
      "Ġexami": 5910,
      "Ġmeal": 5911,
      "ĠTy": 5912,
      "ĠDen": 5913,
      "water": 5914,
      "ĠCare": 5915,
      "nx": 5916,
      "ĠLike": 5917,
      "appy": 5918,
      "toms": 5919,
      "nings": 5920,
      "olars": 5921,
      "Ġcomponent": 5922,
      "xy": 5923,
      "ĠCentre": 5924,
      "Why": 5925,
      "ĠSystems": 5926,
      "reg": 5927,
      "Ġbond": 5928,
      "ĠBio": 5929,
      "Ġsides": 5930,
      "Ġmanual": 5931,
      "OD": 5932,
      "She": 5933,
      "ĠJapan": 5934,
      "TH": 5935,
      "ĠBack": 5936,
      "ĠChe": 5937,
      "ĠSl": 5938,
      "Ġmeat": 5939,
      "Ġexpans": 5940,
      "Ġrapid": 5941,
      "Ġcorresponding": 5942,
      "ĠControl": 5943,
      "ĠDiv": 5944,
      "hand": 5945,
      "Ġeducational": 5946,
      "Ġsett": 5947,
      "Ġgrade": 5948,
      "nance": 5949,
      "tei": 5950,
      "Ġeffectively": 5951,
      "Ġparent": 5952,
      "Ġcolle": 5953,
      "Ġconsidering": 5954,
      "Ġremote": 5955,
      "Ġyouth": 5956,
      "Ġconsequ": 5957,
      "Ġscri": 5958,
      "Ġnav": 5959,
      "ĠAndroid": 5960,
      "OC": 5961,
      "Ġinstructions": 5962,
      "istant": 5963,
      "ĠNor": 5964,
      "aco": 5965,
      "acter": 5966,
      "ĠAndr": 5967,
      "Ġhousing": 5968,
      "Let": 5969,
      "Ġengineering": 5970,
      "ĠCall": 5971,
      "Ġcommitted": 5972,
      "Ġgovern": 5973,
      "Ġbranch": 5974,
      "hang": 5975,
      "Ġexternal": 5976,
      "Ġguarantee": 5977,
      "elines": 5978,
      "Ġfamiliar": 5979,
      "Ġannounce": 5980,
      "Ġrestaurants": 5981,
      "Ġcompetitive": 5982,
      "Ġchamp": 5983,
      "Ġattract": 5984,
      "Ġreturned": 5985,
      "inal": 5986,
      "Ġpremium": 5987,
      "Ġsigned": 5988,
      "Ġaftern": 5989,
      "erson": 5990,
      "ĠShop": 5991,
      "xture": 5992,
      "ĠGerman": 5993,
      "ĠGrand": 5994,
      "].": 5995,
      "ĠJos": 5996,
      "Ġunivers": 5997,
      "ando": 5998,
      "ĠLu": 5999,
      "Ġlinear": 6000,
      "Ġtables": 6001,
      "Ġtickets": 6002,
      "ĠFrance": 6003,
      "Ġsalt": 6004,
      "Ġstick": 6005,
      "ĠHD": 6006,
      "ĠDistrict": 6007,
      "Ġclimate": 6008,
      "Ġasking": 6009,
      "ĠWhether": 6010,
      "Ġanc": 6011,
      "Ġtopics": 6012,
      "Ġequival": 6013,
      "rastructure": 6014,
      "Ġsurf": 6015,
      "idential": 6016,
      "Ġhighlight": 6017,
      "Ġdefe": 6018,
      "Ġsignificantly": 6019,
      "Ġrow": 6020,
      "ĠIndustr": 6021,
      "vin": 6022,
      "Ġdial": 6023,
      "Ġplate": 6024,
      "ones": 6025,
      "áħµ": 6026,
      "Ġdespite": 6027,
      "Not": 6028,
      "Ġtests": 6029,
      "Ġmonthly": 6030,
      "Ġcutting": 6031,
      "Ġdesti": 6032,
      "Ġboy": 6033,
      "ictor": 6034,
      "Ġcour": 6035,
      "ĠChamp": 6036,
      "Ġthread": 6037,
      "Ġreaders": 6038,
      "icul": 6039,
      "akers": 6040,
      "ĠThus": 6041,
      "aro": 6042,
      "Ġrental": 6043,
      "Ġbeat": 6044,
      "state": 6045,
      "PR": 6046,
      "Ġobjects": 6047,
      "Ġapproved": 6048,
      "ĠMad": 6049,
      "ĠON": 6050,
      "Ġflight": 6051,
      "ĠRoom": 6052,
      "ulty": 6053,
      "Ġeventually": 6054,
      "ulture": 6055,
      "cope": 6056,
      "Ġtight": 6057,
      "ĠCam": 6058,
      "tein": 6059,
      "Ġer": 6060,
      "Ġvic": 6061,
      "Ġanaly": 6062,
      "ĠGeorge": 6063,
      "ĠAut": 6064,
      "Ġshut": 6065,
      "Ġflowers": 6066,
      "Ġemployee": 6067,
      "Ġwave": 6068,
      "nced": 6069,
      "Ġorders": 6070,
      "ĠTwitter": 6071,
      "ometimes": 6072,
      "Ġintellig": 6073,
      "Ġbelong": 6074,
      "Ġremaining": 6075,
      "Ġchart": 6076,
      "anda": 6077,
      "umes": 6078,
      "MA": 6079,
      "Ġportion": 6080,
      "Ġproviders": 6081,
      "Ġaccurate": 6082,
      "ĠLtd": 6083,
      "oing": 6084,
      "ĠNOT": 6085,
      "Ġindex": 6086,
      "reat": 6087,
      "Ġatmos": 6088,
      "Ġvaluable": 6089,
      "New": 6090,
      "ĠMachine": 6091,
      "Ġ63": 6092,
      "ĠMot": 6093,
      "areness": 6094,
      "Ġsheet": 6095,
      "tract": 6096,
      "cin": 6097,
      "Ġadvertising": 6098,
      "sp": 6099,
      "lig": 6100,
      "iers": 6101,
      "ĠSoft": 6102,
      "Ġ2002": 6103,
      "oses": 6104,
      "ena": 6105,
      "Ġpresentation": 6106,
      "agram": 6107,
      "Ġappearance": 6108,
      "ĠHotel": 6109,
      "áħ³": 6110,
      "Ġbuildings": 6111,
      "Ġkid": 6112,
      "Comp": 6113,
      "Ġpurchased": 6114,
      "ĠLim": 6115,
      "Ġath": 6116,
      "Ġ97": 6117,
      "Î½": 6118,
      "ingu": 6119,
      "Ġlegis": 6120,
      "ĠGermany": 6121,
      "Ġtherapy": 6122,
      "Ġintended": 6123,
      "Ġguest": 6124,
      "ĠEnter": 6125,
      "ĠTeam": 6126,
      "Ġappreciate": 6127,
      "TA": 6128,
      "owered": 6129,
      "Ġkinds": 6130,
      "Ġbutter": 6131,
      "sing": 6132,
      "ĠBoth": 6133,
      "Ġment": 6134,
      "pet": 6135,
      "ĠMP": 6136,
      "resh": 6137,
      "Ġreplace": 6138,
      "Ġuniversity": 6139,
      "orea": 6140,
      "Ġraise": 6141,
      "Ġregistration": 6142,
      "Ġboat": 6143,
      "Ġleather": 6144,
      "Ġlabel": 6145,
      "bur": 6146,
      "orry": 6147,
      "Ġdur": 6148,
      "Ġapps": 6149,
      "Ġmg": 6150,
      "Ġseek": 6151,
      "Ġmanufacturing": 6152,
      "ĠAS": 6153,
      "estyle": 6154,
      "Ġhearing": 6155,
      "ĠReal": 6156,
      "nds": 6157,
      "Ġcoast": 6158,
      "lication": 6159,
      "Ġperfectly": 6160,
      "oub": 6161,
      "Ġconserv": 6162,
      "Ġextended": 6163,
      "Ġneighborhood": 6164,
      "Ġ72": 6165,
      "Ġneck": 6166,
      "Ġphil": 6167,
      "atin": 6168,
      "Ġcharges": 6169,
      "Ġinterface": 6170,
      "Ġnine": 6171,
      "Se": 6172,
      "Ġdogs": 6173,
      "Ġoccasion": 6174,
      "oting": 6175,
      "Ġanimal": 6176,
      "Ġsigns": 6177,
      "ĠStand": 6178,
      "cean": 6179,
      "Ġproto": 6180,
      "Ġdescription": 6181,
      "Ġ2001": 6182,
      "Ġboost": 6183,
      "ĠEarth": 6184,
      "Ġwalls": 6185,
      "Ġpatterns": 6186,
      "ĠMuseum": 6187,
      "Ġmatrix": 6188,
      "Ġ800": 6189,
      "Ġsitting": 6190,
      "Ġrear": 6191,
      "cop": 6192,
      "Ġcooking": 6193,
      "Ġgenerated": 6194,
      "osop": 6195,
      "Ġdesire": 6196,
      "Ġtemplate": 6197,
      "orter": 6198,
      "Ġafternoon": 6199,
      "Ġconsumer": 6200,
      "Ġquiet": 6201,
      "Ġminor": 6202,
      "mmet": 6203,
      "LA": 6204,
      "esterday": 6205,
      "ĠSmith": 6206,
      "Ġsin": 6207,
      "Ġmachines": 6208,
      "ĠShow": 6209,
      "ĠOrgan": 6210,
      "luding": 6211,
      "Ġowned": 6212,
      "ĠGal": 6213,
      "Ġemergency": 6214,
      "Ġdiscovered": 6215,
      "Ġfeels": 6216,
      "Ins": 6217,
      "Ġbike": 6218,
      "gage": 6219,
      "uces": 6220,
      "ĠYes": 6221,
      "Ġnoise": 6222,
      "orney": 6223,
      "Ġcheese": 6224,
      "ĠKar": 6225,
      "ĠBos": 6226,
      "ĠBet": 6227,
      "Ġholding": 6228,
      "Ġrealize": 6229,
      "Ġscript": 6230,
      "Ġdept": 6231,
      "ĠNY": 6232,
      "ucks": 6233,
      "However": 6234,
      "Ġinterests": 6235,
      "tep": 6236,
      "burg": 6237,
      "iser": 6238,
      "Res": 6239,
      "Ġperspective": 6240,
      "Ġ77": 6241,
      "ÌĦ": 6242,
      "Ġcreation": 6243,
      "Ġsupporting": 6244,
      "ÏĦ": 6245,
      "Ġmassive": 6246,
      "ĠMont": 6247,
      "ĠOR": 6248,
      "Ġspectr": 6249,
      "Ġpaying": 6250,
      "Ġaim": 6251,
      "phis": 6252,
      "ĠChicago": 6253,
      "App": 6254,
      "urb": 6255,
      "Ġseeking": 6256,
      "Ġcarried": 6257,
      "abled": 6258,
      "ura": 6259,
      "str": 6260,
      "rent": 6261,
      "Ġdish": 6262,
      "Ġdoubt": 6263,
      "ĠSeries": 6264,
      "ĠSU": 6265,
      "Î²": 6266,
      "Ġdrivers": 6267,
      "adian": 6268,
      "eper": 6269,
      "Ġsauce": 6270,
      "Ġfly": 6271,
      "Ġconsumers": 6272,
      "Ġreplacement": 6273,
      "Ġdepart": 6274,
      "Ġrecovery": 6275,
      "Ġdegrees": 6276,
      "nis": 6277,
      "Ġforg": 6278,
      "uster": 6279,
      "Ġguy": 6280,
      "cuit": 6281,
      "pho": 6282,
      "Ġheight": 6283,
      "ĠTa": 6284,
      "ĠFurther": 6285,
      "Ġinfect": 6286,
      "Ġcauses": 6287,
      "Ġcer": 6288,
      "ĠTour": 6289,
      "Ġstars": 6290,
      "ibilities": 6291,
      "Ì¨": 6292,
      "Ġretail": 6293,
      "Ġtrained": 6294,
      "ĠDig": 6295,
      "ĠIsrael": 6296,
      "Ġ66": 6297,
      "ĠFamily": 6298,
      "Ġprove": 6299,
      "ĠUnion": 6300,
      "Ġbringing": 6301,
      "df": 6302,
      "Ġdiscussed": 6303,
      "reprene": 6304,
      "ĠCarol": 6305,
      "ĠSimp": 6306,
      "Yes": 6307,
      "Ġ600": 6308,
      "izer": 6309,
      "ĠAccording": 6310,
      "Ġshares": 6311,
      "ĠOld": 6312,
      "ĠUsing": 6313,
      "odies": 6314,
      "ĠBill": 6315,
      "ĠMedical": 6316,
      "Ġassemb": 6317,
      "Ġharm": 6318,
      "Ġincredible": 6319,
      "aded": 6320,
      "icy": 6321,
      "mination": 6322,
      "Ġdepth": 6323,
      "Ġcontemporary": 6324,
      "Ġimprovement": 6325,
      "Ġbirthday": 6326,
      "Ġ120": 6327,
      "Ġclinical": 6328,
      "Ġchocolate": 6329,
      "Ġchicken": 6330,
      "Ġregularly": 6331,
      "Ġseemed": 6332,
      "east": 6333,
      "Ġsurgery": 6334,
      "cell": 6335,
      "graphy": 6336,
      "Ġdensity": 6337,
      "hns": 6338,
      "Ġoverl": 6339,
      "áħ©": 6340,
      "Ġcircumst": 6341,
      "riage": 6342,
      "ĠParty": 6343,
      "Ġfoods": 6344,
      "ĠOnly": 6345,
      "Ġcommand": 6346,
      "Ġthor": 6347,
      "Ġplays": 6348,
      "ogue": 6349,
      "Ġ67": 6350,
      "ĠWork": 6351,
      "ĠPub": 6352,
      "Ġissued": 6353,
      "road": 6354,
      "Ġparticipate": 6355,
      "ĠSP": 6356,
      "Ġbroken": 6357,
      "working": 6358,
      "Ġidentified": 6359,
      "Ġnor": 6360,
      "Ġadministration": 6361,
      "Ġsurrounding": 6362,
      "Ġroute": 6363,
      "agr": 6364,
      "Ġexpression": 6365,
      "Ġlaunched": 6366,
      "Ġdefine": 6367,
      "ultural": 6368,
      "Ġgal": 6369,
      "Ġhardware": 6370,
      "Ġdefinition": 6371,
      "Ġanswers": 6372,
      "Ġsessions": 6373,
      "Ġcandidates": 6374,
      "Ġglad": 6375,
      "Â·": 6376,
      "ĠCH": 6377,
      "Ġoperator": 6378,
      "Ġfre": 6379,
      "Ġtut": 6380,
      "mpt": 6381,
      "Ġwarrant": 6382,
      "Ġyield": 6383,
      "Ðº": 6384,
      "mond": 6385,
      "Ġ62": 6386,
      "Ġpoker": 6387,
      "ĠÎĵ": 6388,
      "Ġdetect": 6389,
      "Ġcommitment": 6390,
      "gs": 6391,
      "ĠUnder": 6392,
      "Ġexcess": 6393,
      "Ġorganic": 6394,
      "ĠKo": 6395,
      "acle": 6396,
      "lined": 6397,
      "Ġlicense": 6398,
      "Ġloves": 6399,
      "ĠPlus": 6400,
      "poration": 6401,
      "Ġ,(": 6402,
      "ora": 6403,
      "Ġgenerate": 6404,
      "Ġnuc": 6405,
      "Ġsolar": 6406,
      "esti": 6407,
      "Ġwheel": 6408,
      "Ġdistrict": 6409,
      "Cont": 6410,
      "ĠWher": 6411,
      "Ġassets": 6412,
      "Ġincreases": 6413,
      "itics": 6414,
      "ĠRobert": 6415,
      "Ġidentity": 6416,
      "Ġcalling": 6417,
      "ĠFund": 6418,
      "ĠiPhone": 6419,
      "ĠÂ°": 6420,
      "ĠCA": 6421,
      "oster": 6422,
      "Ma": 6423,
      "Ġpainting": 6424,
      "Ġframework": 6425,
      "Ġtypical": 6426,
      "Ġfailure": 6427,
      "Ġfellow": 6428,
      "ĠAtl": 6429,
      "Ġtechnique": 6430,
      "Ïĥ": 6431,
      "ĠLibr": 6432,
      "Ġfulf": 6433,
      "Ġhouses": 6434,
      "Ġiron": 6435,
      "Ġemphas": 6436,
      "Acc": 6437,
      "ifications": 6438,
      "ĠLy": 6439,
      "Ġintegrated": 6440,
      "Ġcong": 6441,
      "Ġprop": 6442,
      "Ġrank": 6443,
      "Ġconflic": 6444,
      "Î¸": 6445,
      "Ġsca": 6446,
      "Ġ88": 6447,
      "ĠMatt": 6448,
      "merce": 6449,
      "ancing": 6450,
      "ĠKey": 6451,
      "Ġsilver": 6452,
      "ĠEnergy": 6453,
      "Or": 6454,
      "Ġshoes": 6455,
      "ĠAgr": 6456,
      "Ġcycle": 6457,
      "Ġrelatively": 6458,
      "ĠÏĪ": 6459,
      "Ġhundreds": 6460,
      "ĠGlobal": 6461,
      "ML": 6462,
      "Ġprocedures": 6463,
      "ĠâĪļ": 6464,
      "**": 6465,
      "Ġdiscip": 6466,
      "ĠScott": 6467,
      "Ġcruc": 6468,
      "Ġdefault": 6469,
      "enters": 6470,
      "Ġtreated": 6471,
      "ĠMer": 6472,
      "Ġamb": 6473,
      "itar": 6474,
      "Ïģ": 6475,
      "âĦ¢": 6476,
      "Ġsupports": 6477,
      "Ġrevenue": 6478,
      "Ġsuccessfully": 6479,
      "iger": 6480,
      "VE": 6481,
      "Ġrail": 6482,
      "Ġconsistent": 6483,
      "Br": 6484,
      "Ġfreedom": 6485,
      "ket": 6486,
      "ĠProcess": 6487,
      "Ġ250": 6488,
      "Ġpitch": 6489,
      "ĠAward": 6490,
      "Ġbrown": 6491,
      "áĨ¼": 6492,
      "weight": 6493,
      "Ġadministr": 6494,
      "Ġaccepted": 6495,
      "Just": 6496,
      "Ġyes": 6497,
      "Ġpublish": 6498,
      "Ġfold": 6499,
      "igen": 6500,
      "Ġmilk": 6501,
      "Ġends": 6502,
      "Ġlived": 6503,
      "Ġcrusher": 6504,
      "Ġusual": 6505,
      "nat": 6506,
      "Ġbee": 6507,
      "Ġluxury": 6508,
      "Ġgreatest": 6509,
      "ĠArts": 6510,
      "ĠInf": 6511,
      "Ġassessment": 6512,
      "Ġformed": 6513,
      "Ġbigger": 6514,
      "ĠPeter": 6515,
      "Ġstated": 6516,
      "Ġimplementation": 6517,
      "ali": 6518,
      "ĠHu": 6519,
      "ĠWestern": 6520,
      "Ġbread": 6521,
      "Ġpray": 6522,
      "Ġconversation": 6523,
      "Ġassume": 6524,
      "Ġbattle": 6525,
      "ĠGen": 6526,
      "wo": 6527,
      "Ġentir": 6528,
      "Ġreasonable": 6529,
      "Ġaffected": 6530,
      "itz": 6531,
      "ĠLab": 6532,
      "ĠHand": 6533,
      "ĠCerti": 6534,
      "cious": 6535,
      "Ġmail": 6536,
      "OP": 6537,
      "Ġwhom": 6538,
      "Ġknowing": 6539,
      "Ġmini": 6540,
      "atr": 6541,
      "Ġmessages": 6542,
      "Ġinterpret": 6543,
      "ĠAud": 6544,
      "ĠClin": 6545,
      "ĠMob": 6546,
      "ĠMedia": 6547,
      "Ġreceiving": 6548,
      "ĠInvest": 6549,
      "resents": 6550,
      "Ġextract": 6551,
      "Ġhi": 6552,
      "Ġodd": 6553,
      "Ġpositions": 6554,
      "Ġped": 6555,
      "atures": 6556,
      "ĠTim": 6557,
      "ĠAdmin": 6558,
      "Ġcyc": 6559,
      "liers": 6560,
      "Ġslot": 6561,
      "Ġvir": 6562,
      "Ġdecl": 6563,
      "Ġjew": 6564,
      "pected": 6565,
      "lates": 6566,
      "CD": 6567,
      "Ġarrived": 6568,
      "Since": 6569,
      "Ġvillage": 6570,
      "ji": 6571,
      "ĠPass": 6572,
      "SE": 6573,
      "Ġicon": 6574,
      "Ġspa": 6575,
      "Ġwriter": 6576,
      "ĠJapanese": 6577,
      "ds": 6578,
      "rich": 6579,
      "Ġyellow": 6580,
      "Ġmarried": 6581,
      "ĠManager": 6582,
      "Ġgarage": 6583,
      "rink": 6584,
      "Ġperman": 6585,
      "Ġearn": 6586,
      "tons": 6587,
      "Ġexists": 6588,
      "ĠEt": 6589,
      "Ġstanding": 6590,
      "ĠâĢĿ": 6591,
      "Ġmouth": 6592,
      "Ġpock": 6593,
      "Ġdomi": 6594,
      "iance": 6595,
      "ĠStart": 6596,
      "ĠFire": 6597,
      "Ġscheme": 6598,
      "ĠHosp": 6599,
      "ĠThrough": 6600,
      "ĠÎ¾": 6601,
      "Ġjoy": 6602,
      "ĠEngineering": 6603,
      "Ġbegins": 6604,
      "Ġrecru": 6605,
      "iors": 6606,
      "ship": 6607,
      "Ġresulting": 6608,
      "oughly": 6609,
      "Ġdest": 6610,
      "igned": 6611,
      "Ġelig": 6612,
      "Ġattrib": 6613,
      "Ġfu": 6614,
      "Ĥ¬": 6615,
      "Ġsymptoms": 6616,
      "Ġacid": 6617,
      "Ġobserved": 6618,
      "ĠSand": 6619,
      "Ġfourt": 6620,
      "Ġbes": 6621,
      "Ġstructures": 6622,
      "Ġsamples": 6623,
      "ĠLast": 6624,
      "Ġfourth": 6625,
      "Ġinfrastructure": 6626,
      "igan": 6627,
      "Âµ": 6628,
      "ĠLearning": 6629,
      "istan": 6630,
      "Ġeleg": 6631,
      "Ġmixed": 6632,
      "Ġhousehold": 6633,
      "Ġconcrete": 6634,
      "Ġforces": 6635,
      "oti": 6636,
      "Ġturns": 6637,
      "Ġfle": 6638,
      "Ġspeech": 6639,
      "Get": 6640,
      "Ġsole": 6641,
      "Ġprotei": 6642,
      "Ġstudio": 6643,
      "heless": 6644,
      "ĠCongress": 6645,
      "Ġprotein": 6646,
      "ells": 6647,
      "Ġtwice": 6648,
      "Ġconfirm": 6649,
      "Ġstretch": 6650,
      "SC": 6651,
      "Ġbrowser": 6652,
      "ĠPR": 6653,
      "ĠTer": 6654,
      "Ġrecorded": 6655,
      "Once": 6656,
      "ĠLeague": 6657,
      "vo": 6658,
      "case": 6659,
      "ĠBud": 6660,
      "ĠMarket": 6661,
      "Ġliquid": 6662,
      "Ġcarefully": 6663,
      "Ġmel": 6664,
      "ĠLoc": 6665,
      "Ġ61": 6666,
      "Ġpayments": 6667,
      "yright": 6668,
      "ĠMA": 6669,
      "Ġhistorical": 6670,
      "ĠStep": 6671,
      "Ġsubstant": 6672,
      "arsh": 6673,
      "Ġchallenging": 6674,
      "ĠAfrican": 6675,
      "Ġstyles": 6676,
      "Ġedition": 6677,
      "ĠNetwork": 6678,
      "Ġrare": 6679,
      "Ġbowl": 6680,
      "herm": 6681,
      "ossible": 6682,
      "Ġmatters": 6683,
      "Ġflexible": 6684,
      "ĠAD": 6685,
      "Ġrenew": 6686,
      "Ġcul": 6687,
      "ĠÎ©": 6688,
      "Ġkit": 6689,
      "23": 6690,
      "ĠRE": 6691,
      "Ġauthent": 6692,
      "level": 6693,
      "Any": 6694,
      "Ġstrugg": 6695,
      "Ġcake": 6696,
      "ract": 6697,
      "ĠTest": 6698,
      "har": 6699,
      "Ġscientific": 6700,
      "Ġarr": 6701,
      "ideo": 6702,
      "iang": 6703,
      "ĠComputer": 6704,
      "Ġworldwide": 6705,
      "ighter": 6706,
      "tinct": 6707,
      "ĠGa": 6708,
      "Ġ..": 6709,
      "Ġtab": 6710,
      "ĠHead": 6711,
      "âĢĻ.": 6712,
      "Ġkeeps": 6713,
      "Ġfro": 6714,
      "ean": 6715,
      "Ġsplit": 6716,
      "iform": 6717,
      "Ġking": 6718,
      "Ġvit": 6719,
      "Ġhosting": 6720,
      "Ġtrig": 6721,
      "ĠAsia": 6722,
      "Ġ%.": 6723,
      "Ġil": 6724,
      "Ġdelight": 6725,
      "ĠPlan": 6726,
      "Ġlicens": 6727,
      "Ġspect": 6728,
      "Ġalcohol": 6729,
      "ĠBed": 6730,
      "Ġdecades": 6731,
      "Ġjack": 6732,
      "Ġformal": 6733,
      "Ġgro": 6734,
      "eph": 6735,
      "Ġbrothe": 6736,
      "ĠEU": 6737,
      "Ġdynamic": 6738,
      "Ġnoted": 6739,
      "Ġbrother": 6740,
      "Ġteeth": 6741,
      "essed": 6742,
      "ĠPac": 6743,
      "Ġdiverse": 6744,
      "Ġrepresents": 6745,
      "ĠSea": 6746,
      "ĠĊĊ": 6747,
      "Ġappeared": 6748,
      "ĠVirgin": 6749,
      "ĠEq": 6750,
      "uters": 6751,
      "ery": 6752,
      "Ġupload": 6753,
      "ĠAustralian": 6754,
      "Every": 6755,
      "ĠBrown": 6756,
      "ĠKorea": 6757,
      "ĠJew": 6758,
      "Ġaccessible": 6759,
      "arrow": 6760,
      "Ġmal": 6761,
      "Ġoutstanding": 6762,
      "ĠThomas": 6763,
      "Ġinvolve": 6764,
      "tech": 6765,
      "Ġriver": 6766,
      "Ġconcerned": 6767,
      "anx": 6768,
      "Ġarchitecture": 6769,
      "ĠAcademy": 6770,
      "ĠEconom": 6771,
      "ĠFrank": 6772,
      "while": 6773,
      "Ġcable": 6774,
      "Ġstunning": 6775,
      "Ġparameter": 6776,
      "Ġskill": 6777,
      "uming": 6778,
      "Ġmining": 6779,
      "ĠFigure": 6780,
      "Ġsupplies": 6781,
      "Ġcharged": 6782,
      "Ġrecover": 6783,
      "Ġabsor": 6784,
      "ntage": 6785,
      "bre": 6786,
      "Ġdu": 6787,
      "Ġvirtual": 6788,
      "Ġtruck": 6789,
      "orgeous": 6790,
      "ĠLee": 6791,
      "ords": 6792,
      "Ġdollars": 6793,
      "Ġconducted": 6794,
      "Ġconstantly": 6795,
      "ulating": 6796,
      "Ġreturns": 6797,
      "Ġmainly": 6798,
      "Ġdesired": 6799,
      "Ġalgorithm": 6800,
      "ĠBuy": 6801,
      "ĠParis": 6802,
      "ĠMill": 6803,
      "Ġneut": 6804,
      "ysis": 6805,
      "ĠChen": 6806,
      "alled": 6807,
      "Ġfacilit": 6808,
      "Ġsolve": 6809,
      "fs": 6810,
      "Ġfrequently": 6811,
      "ĠCop": 6812,
      "Ïī": 6813,
      "Ġsearching": 6814,
      "UN": 6815,
      "Ġplanned": 6816,
      "Ġmoments": 6817,
      "di": 6818,
      "ainless": 6819,
      "Ġentertainment": 6820,
      "Ġapartment": 6821,
      "Ġ1000": 6822,
      "Ġhire": 6823,
      "Ġvert": 6824,
      "ĠSecond": 6825,
      "related": 6826,
      "Ġimpressive": 6827,
      "Ġ69": 6828,
      "ilst": 6829,
      "aste": 6830,
      "ãĤĻ": 6831,
      "west": 6832,
      "ĠCath": 6833,
      "ĠSpring": 6834,
      "Ġinvent": 6835,
      "Ġplane": 6836,
      "ĠList": 6837,
      "Ġawareness": 6838,
      "Ġ193": 6839,
      "orable": 6840,
      "Ġeth": 6841,
      "Ġcitizens": 6842,
      "bridge": 6843,
      "ĠCP": 6844,
      "logical": 6845,
      "Ġgolf": 6846,
      "Ġmon": 6847,
      "fl": 6848,
      "Ġcomparison": 6849,
      "Dr": 6850,
      "Ġagents": 6851,
      "Ġsituations": 6852,
      "Ġgrown": 6853,
      "azz": 6854,
      "áĨ¯": 6855,
      "Ġemployment": 6856,
      "Ġpapers": 6857,
      "iot": 6858,
      "Ġfeaturing": 6859,
      "comes": 6860,
      "ĠHous": 6861,
      "ĠJohns": 6862,
      "mal": 6863,
      "Ġfeatured": 6864,
      "Ġdiss": 6865,
      "ĠWomen": 6866,
      "ĠDu": 6867,
      "isa": 6868,
      "Ġserves": 6869,
      "Ġspeaking": 6870,
      "Ġextension": 6871,
      "ĠStat": 6872,
      "icans": 6873,
      "Ġresidential": 6874,
      "Ġinvestors": 6875,
      "Ġ68": 6876,
      "ĠVer": 6877,
      "Ġthin": 6878,
      "Ġfailed": 6879,
      "Ġcompens": 6880,
      "ĠLos": 6881,
      "Ġeveryday": 6882,
      "Ġstring": 6883,
      "yan": 6884,
      "ĠNi": 6885,
      "Ġappointment": 6886,
      "Ġbonus": 6887,
      "perior": 6888,
      "Ġdepends": 6889,
      "Ġ86": 6890,
      "Ġinteraction": 6891,
      "abet": 6892,
      "Ġwrit": 6893,
      "iment": 6894,
      "Ġofficials": 6895,
      "Ġfrequency": 6896,
      "lets": 6897,
      "Ġchoosing": 6898,
      "ĠMinister": 6899,
      "Ġprivacy": 6900,
      "Ġloans": 6901,
      "ĠSqu": 6902,
      "ĠFa": 6903,
      "ĠDemocr": 6904,
      "ĠAccess": 6905,
      "UL": 6906,
      "Ġlandscape": 6907,
      "ÌĮ": 6908,
      "CE": 6909,
      "Ġdescribe": 6910,
      "Ġmeetings": 6911,
      "idents": 6912,
      "Ġcloser": 6913,
      "Ġtaught": 6914,
      "Ġsymmet": 6915,
      "Qu": 6916,
      "ĠCreat": 6917,
      "ĠEar": 6918,
      "Ġblend": 6919,
      "Ġagencies": 6920,
      "Ġease": 6921,
      "Ġupcoming": 6922,
      "ilton": 6923,
      "Ġhttps": 6924,
      "ema": 6925,
      "ĠMon": 6926,
      "Ġcarbon": 6927,
      "Ġequations": 6928,
      "Ġfoundation": 6929,
      "ailer": 6930,
      "Ġcompare": 6931,
      "EW": 6932,
      "igration": 6933,
      "áħ¥": 6934,
      "Ġelectrical": 6935,
      "Ġmountain": 6936,
      "iner": 6937,
      "ĠCode": 6938,
      "ĠAR": 6939,
      "Ġinch": 6940,
      "rish": 6941,
      "ÏĨ": 6942,
      "Ġguarante": 6943,
      "Ġpure": 6944,
      "eases": 6945,
      "elp": 6946,
      "Ġadvis": 6947,
      "Ġatmosphere": 6948,
      "Ġorigin": 6949,
      "range": 6950,
      "endar": 6951,
      "aked": 6952,
      "Ġreward": 6953,
      "Ġanx": 6954,
      "Ġ76": 6955,
      "etime": 6956,
      "Ġinspiration": 6957,
      "Ġcouns": 6958,
      "kins": 6959,
      "ustin": 6960,
      "Ġtrouble": 6961,
      "car": 6962,
      "Ġcontinuous": 6963,
      "Ġreduction": 6964,
      "Ġachieved": 6965,
      "asp": 6966,
      "cing": 6967,
      "Ġconvenient": 6968,
      "nting": 6969,
      "Ġsuc": 6970,
      "ems": 6971,
      "idays": 6972,
      "Ġrecognized": 6973,
      "rics": 6974,
      "acking": 6975,
      "nald": 6976,
      "Ġmovies": 6977,
      "ĠPhysics": 6978,
      "Ġ73": 6979,
      "gl": 6980,
      "Ġfemale": 6981,
      "ĠâĦ": 6982,
      "oor": 6983,
      "flow": 6984,
      "Ġconsists": 6985,
      "Ġmedicine": 6986,
      "Ġauthors": 6987,
      "you": 6988,
      "Ġgathe": 6989,
      "ĠRoyal": 6990,
      "Ġfavourite": 6991,
      "Ġdestination": 6992,
      "ĠFOR": 6993,
      "Ġticket": 6994,
      "Ġalle": 6995,
      "ailable": 6996,
      "CT": 6997,
      "Are": 6998,
      "nar": 6999,
      "Ġequipped": 7000,
      "Ġstands": 7001,
      "aler": 7002,
      "Ġmanufacturer": 7003,
      "Ġdelay": 7004,
      "celer": 7005,
      "ician": 7006,
      "Î³": 7007,
      "ĠFestival": 7008,
      "Ġattached": 7009,
      "bel": 7010,
      "Ġeditor": 7011,
      "25": 7012,
      "Ġhyper": 7013,
      "Ġoperate": 7014,
      "Ġconcern": 7015,
      "Ġrelation": 7016,
      "Ġcircumstances": 7017,
      "teen": 7018,
      "Ġinnovation": 7019,
      "Ġtherm": 7020,
      "Ġimagine": 7021,
      "Ġphen": 7022,
      "15": 7023,
      "hu": 7024,
      "inde": 7025,
      "Ġcapable": 7026,
      "ĠÏķ": 7027,
      "yard": 7028,
      "Ġmult": 7029,
      "Ġvector": 7030,
      "Ġexceed": 7031,
      "Ġanalyt": 7032,
      "Ġkil": 7033,
      "VD": 7034,
      "Ġregional": 7035,
      "Ġvital": 7036,
      "Ġmoist": 7037,
      "Ġinstitutions": 7038,
      "Ġinches": 7039,
      "ĠRussian": 7040,
      "appoint": 7041,
      "Ġ87": 7042,
      "aturally": 7043,
      "Ġast": 7044,
      "ĠMS": 7045,
      "Ġ78": 7046,
      "date": 7047,
      "Ġlifestyle": 7048,
      "eathe": 7049,
      "Ġban": 7050,
      "First": 7051,
      "ĠLeg": 7052,
      "Ġpassword": 7053,
      "Ġprogramme": 7054,
      "iti": 7055,
      "meter": 7056,
      "away": 7057,
      "licated": 7058,
      "Ġcooper": 7059,
      "Ġmissed": 7060,
      "Ġhole": 7061,
      "Ġexpectations": 7062,
      "Ġexpansion": 7063,
      "Ġcaught": 7064,
      "ĠUl": 7065,
      "verage": 7066,
      "Ġrepresentation": 7067,
      "Don": 7068,
      "Ġcrucial": 7069,
      "Ġcandidate": 7070,
      "ĠHaw": 7071,
      "ystal": 7072,
      "Ġsac": 7073,
      "Ġsequence": 7074,
      "Ġexec": 7075,
      "Ġ74": 7076,
      "ĠContact": 7077,
      "Ġexecutive": 7078,
      "esis": 7079,
      "ĠAuto": 7080,
      "oop": 7081,
      "ĠWay": 7082,
      "Ġ190": 7083,
      "gers": 7084,
      "ĠAnother": 7085,
      "ĠKnow": 7086,
      "vate": 7087,
      "ĠWorks": 7088,
      "ĠCEO": 7089,
      "ĠGri": 7090,
      "Ġsky": 7091,
      "Ġbench": 7092,
      "ĠWhere": 7093,
      "Ġwire": 7094,
      "Ġgrab": 7095,
      "ĠItalian": 7096,
      "achel": 7097,
      "ĠElect": 7098,
      "Ġwel": 7099,
      "quir": 7100,
      "Ġ84": 7101,
      "Ġtub": 7102,
      "Ġemotional": 7103,
      "tial": 7104,
      "Ġelection": 7105,
      "hia": 7106,
      "Ġdiscl": 7107,
      "Ġadj": 7108,
      "Ġinner": 7109,
      "thr": 7110,
      "14": 7111,
      "13": 7112,
      "ĠFull": 7113,
      "Ġentirely": 7114,
      "Ġqualified": 7115,
      "Ġcollaboration": 7116,
      "Ġtor": 7117,
      "aga": 7118,
      "Ġrom": 7119,
      "Ġrelative": 7120,
      "Ġweap": 7121,
      "ĠFair": 7122,
      "Ġnoticed": 7123,
      "Ġtrail": 7124,
      "Ġratio": 7125,
      "Ġequivalent": 7126,
      "90": 7127,
      "Ġindeed": 7128,
      "Ġnearby": 7129,
      "ĠJul": 7130,
      "Ġ1999": 7131,
      "imensional": 7132,
      "ĠCanadian": 7133,
      "ĠWilliam": 7134,
      "Ġcreates": 7135,
      "Ġlit": 7136,
      "worth": 7137,
      "Ġnormally": 7138,
      "ĠProceed": 7139,
      "Ġguidance": 7140,
      "Ġpharm": 7141,
      "Ġprotected": 7142,
      "heat": 7143,
      "arks": 7144,
      "Ġages": 7145,
      "ATION": 7146,
      "ĠLouis": 7147,
      "Ġnone": 7148,
      "Ġmonitoring": 7149,
      "urse": 7150,
      "Ġhealthcare": 7151,
      "Ġorganized": 7152,
      "Ġdrugs": 7153,
      "Ġsynth": 7154,
      "ĠDet": 7155,
      "Ġcute": 7156,
      "âĢ¦.": 7157,
      "Ġregions": 7158,
      "GE": 7159,
      "Ġsupposed": 7160,
      "Ġvacation": 7161,
      "Ġdates": 7162,
      "à¸": 7163,
      "Ġmonitor": 7164,
      "Le": 7165,
      "ĠCost": 7166,
      "ĠPet": 7167,
      "ĠJud": 7168,
      "Ġairport": 7169,
      "Ġcapture": 7170,
      "Ġpill": 7171,
      "Ġshift": 7172,
      "Sp": 7173,
      "ĠChem": 7174,
      "Ġzone": 7175,
      "Ġpurs": 7176,
      "licit": 7177,
      "Ġgifts": 7178,
      "Ġpep": 7179,
      "Ġcollected": 7180,
      "folio": 7181,
      "Ġsister": 7182,
      "ĠMen": 7183,
      "ĠView": 7184,
      "tels": 7185,
      "Ġelectron": 7186,
      "Ġarts": 7187,
      "Ġok": 7188,
      "Ġkick": 7189,
      "mun": 7190,
      "FL": 7191,
      "Ġscal": 7192,
      "Ġdispl": 7193,
      "tered": 7194,
      "Ġwet": 7195,
      "ĠEnd": 7196,
      "Ġdeck": 7197,
      "Ġworse": 7198,
      "Ġnative": 7199,
      "Ġevaluation": 7200,
      "Ġroutine": 7201,
      "Ġinh": 7202,
      "Ġagreed": 7203,
      "orders": 7204,
      "Ġpil": 7205,
      "Ġtested": 7206,
      "Ġax": 7207,
      "ĠJan": 7208,
      "Ġwinner": 7209,
      "Ġperforming": 7210,
      "Ġyesterday": 7211,
      "Ġcelebrate": 7212,
      "Ġentreprene": 7213,
      "Ġpicked": 7214,
      "ss": 7215,
      "Jo": 7216,
      "ĠVictor": 7217,
      "Ġversions": 7218,
      "itable": 7219,
      "Ġcontrast": 7220,
      "Ġdesigner": 7221,
      "Ġfilms": 7222,
      "Ġmixture": 7223,
      "Ġ98": 7224,
      "Ġclassroom": 7225,
      "ĠDoes": 7226,
      "ormal": 7227,
      "ĠGame": 7228,
      "Ġcodes": 7229,
      "eding": 7230,
      "Ġsharp": 7231,
      "ĠInstead": 7232,
      "berry": 7233,
      "Ġestimated": 7234,
      "Ġmagnetic": 7235,
      "Ġforec": 7236,
      "ĠOper": 7237,
      "ĠMaybe": 7238,
      "Ġtiss": 7239,
      "Ġstopped": 7240,
      "Ġcommission": 7241,
      "ĠCup": 7242,
      "Ġpoll": 7243,
      "Ġcatal": 7244,
      "rial": 7245,
      "Ġinstrument": 7246,
      "Ġoperators": 7247,
      "Ġmut": 7248,
      "):": 7249,
      "try": 7250,
      "Ġimproving": 7251,
      "ĠLibrary": 7252,
      "ĠCond": 7253,
      "uine": 7254,
      "Ġtast": 7255,
      "Ġwitness": 7256,
      "ini": 7257,
      "Ġmax": 7258,
      "ĠMiddle": 7259,
      "ht": 7260,
      "Ġbli": 7261,
      "Ġdomin": 7262,
      "Ġapproaches": 7263,
      "Ġran": 7264,
      "acious": 7265,
      "Ġregulations": 7266,
      "Ġregul": 7267,
      "ĠAff": 7268,
      "nament": 7269,
      "Ġvend": 7270,
      "Ġpleased": 7271,
      "Ġdifferences": 7272,
      "Ġrecognition": 7273,
      "Ġfacing": 7274,
      "fr": 7275,
      "Ġscheduled": 7276,
      "Ġconstit": 7277,
      "Ġlessons": 7278,
      "Ġrisks": 7279,
      "zed": 7280,
      "Another": 7281,
      "ĠThose": 7282,
      "ĠSaf": 7283,
      "Ġgallery": 7284,
      "Ġcertified": 7285,
      "Ġacknow": 7286,
      "husi": 7287,
      "can": 7288,
      "Ġsavings": 7289,
      "Ġexplained": 7290,
      "Ġsubsequ": 7291,
      "Ġclosely": 7292,
      "Ġpossibility": 7293,
      "Ġformula": 7294,
      "Ġhall": 7295,
      "TC": 7296,
      "ĠSar": 7297,
      "Ġexecut": 7298,
      "ĠChair": 7299,
      "Ġengagement": 7300,
      "ĠMexico": 7301,
      "17": 7302,
      "ĠDisc": 7303,
      "ĠCR": 7304,
      "Well": 7305,
      "nancial": 7306,
      "ngoing": 7307,
      "Ġclothes": 7308,
      "Ġestimate": 7309,
      "ĠHuman": 7310,
      "Ġstable": 7311,
      "Ġbear": 7312,
      "irty": 7313,
      "reland": 7314,
      "Ġwearing": 7315,
      "ĠCab": 7316,
      "class": 7317,
      "ĠAst": 7318,
      "Ġhappening": 7319,
      "ĠLand": 7320,
      "Ġsurprise": 7321,
      "Ġlogo": 7322,
      "Ġchannels": 7323,
      "ĠBefore": 7324,
      "Ġadventure": 7325,
      "mann": 7326,
      "Ġtelevision": 7327,
      "right": 7328,
      "umed": 7329,
      "Ġscholars": 7330,
      "Ġminimal": 7331,
      "Ġcorrel": 7332,
      "uctive": 7333,
      "ju": 7334,
      "utch": 7335,
      "Ġletters": 7336,
      "Ġmuseum": 7337,
      "itage": 7338,
      "Ġincorpor": 7339,
      "ĠNext": 7340,
      "Ġphilosop": 7341,
      "ĠProv": 7342,
      "Ġkilled": 7343,
      "isters": 7344,
      "Ġhidden": 7345,
      "ĠCurr": 7346,
      "aya": 7347,
      "Ġtrends": 7348,
      "ĠIdeas": 7349,
      "Ġwealth": 7350,
      "asters": 7351,
      "Ġvoluntee": 7352,
      "uer": 7353,
      "Ġturning": 7354,
      "Ġoven": 7355,
      "Also": 7356,
      "Ġenthusi": 7357,
      "Ġflavor": 7358,
      "Ġfishing": 7359,
      "Ġbrush": 7360,
      "EST": 7361,
      "ĠWang": 7362,
      "Ġbooking": 7363,
      "According": 7364,
      "ĠDC": 7365,
      "Ġ96": 7366,
      "ĠMid": 7367,
      "Ġwest": 7368,
      "Pl": 7369,
      ");": 7370,
      "Ġsad": 7371,
      "Ġcompli": 7372,
      "Ġordered": 7373,
      "ĠTheorem": 7374,
      "itis": 7375,
      "marily": 7376,
      "dr": 7377,
      "gebra": 7378,
      "Ġtells": 7379,
      "ĠLead": 7380,
      "Ġfell": 7381,
      "uzz": 7382,
      "Ġcontribute": 7383,
      "Ġadapt": 7384,
      "Ġevolution": 7385,
      "Ġveter": 7386,
      "Ġinvestigation": 7387,
      "PC": 7388,
      "ĠHope": 7389,
      "ĠFollow": 7390,
      "amental": 7391,
      "ĠHim": 7392,
      "Te": 7393,
      "Ġpartnership": 7394,
      "Ġvast": 7395,
      "Ġmembership": 7396,
      "?\"": 7397,
      "ĠAccount": 7398,
      "Ġ2021": 7399,
      "LY": 7400,
      "luded": 7401,
      "Ġauthority": 7402,
      "Ġcro": 7403,
      "ĠCir": 7404,
      "ctive": 7405,
      "ĠRussia": 7406,
      "ĠPDF": 7407,
      "Ġdiagn": 7408,
      "Ġclar": 7409,
      "ĠHen": 7410,
      "Ġfitness": 7411,
      "gend": 7412,
      "ĠArab": 7413,
      "Ġadvoc": 7414,
      "ĠSecret": 7415,
      "Ġterri": 7416,
      "Ġcriminal": 7417,
      "Then": 7418,
      "ĠChildren": 7419,
      "ulous": 7420,
      "lights": 7421,
      "Ġrig": 7422,
      "Ġreplaced": 7423,
      "aping": 7424,
      "dden": 7425,
      "Ġancient": 7426,
      "Ġbasket": 7427,
      "Ġsuggested": 7428,
      "ĠWatch": 7429,
      "Ġshops": 7430,
      "Ġentered": 7431,
      "chool": 7432,
      "alo": 7433,
      "Ġengage": 7434,
      "Ġcampus": 7435,
      "Note": 7436,
      "Ġwireless": 7437,
      "Ġintroduce": 7438,
      "Ġbeer": 7439,
      "ĠReport": 7440,
      "Ġmarg": 7441,
      "Ġdram": 7442,
      "Ġmusical": 7443,
      "ĠPerso": 7444,
      "Ġboys": 7445,
      "Many": 7446,
      "Ġprinted": 7447,
      "Ġmanaging": 7448,
      "ĠJersey": 7449,
      "Ġpatch": 7450,
      "Ġdust": 7451,
      "Ġtransportation": 7452,
      "Ġmodule": 7453,
      "MC": 7454,
      "icker": 7455,
      "emma": 7456,
      "Ġfairly": 7457,
      "Ġdomestic": 7458,
      "Ġtiny": 7459,
      "Ġresistance": 7460,
      "utional": 7461,
      "ĠSpanish": 7462,
      "18": 7463,
      "Ġsudden": 7464,
      "Ġbanks": 7465,
      "Ġaccessories": 7466,
      "ĠCross": 7467,
      "bar": 7468,
      "Ġpersonally": 7469,
      "Ġstrategic": 7470,
      "eather": 7471,
      "Most": 7472,
      "Ġsoul": 7473,
      "Ġimagi": 7474,
      "Ġaccuracy": 7475,
      "Ġearned": 7476,
      "Ġpreparation": 7477,
      "Ġsatisfact": 7478,
      "Ġrely": 7479,
      "estion": 7480,
      "Ġremark": 7481,
      "Ġunable": 7482,
      "âĪĪ": 7483,
      "Ġevol": 7484,
      "Ġreligious": 7485,
      "ops": 7486,
      "Ġyard": 7487,
      "Click": 7488,
      "nces": 7489,
      "Ġenables": 7490,
      "inn": 7491,
      "rat": 7492,
      "Ġreferred": 7493,
      "lling": 7494,
      "loyment": 7495,
      "Ġsaving": 7496,
      "hou": 7497,
      "Ġresearchers": 7498,
      "Ġconv": 7499,
      "Ġorganis": 7500,
      "Ġongoing": 7501,
      "Ġbags": 7502,
      "Ġintegration": 7503,
      "ĠPrem": 7504,
      "Ġurban": 7505,
      "Ġmanufacturers": 7506,
      "Ġexpenses": 7507,
      "Ġaffili": 7508,
      "Ġtalent": 7509,
      "Ġreporting": 7510,
      "Ġwidely": 7511,
      "Ġrevealed": 7512,
      "ĠTown": 7513,
      "agra": 7514,
      "Ġbottle": 7515,
      "Ġsoil": 7516,
      "Ġgau": 7517,
      "Ġstorm": 7518,
      "Ġphotography": 7519,
      "Ġgorgeous": 7520,
      "Ġapplying": 7521,
      "ĠCat": 7522,
      "Ġrei": 7523,
      "Ġcompat": 7524,
      "Ġ83": 7525,
      "__": 7526,
      "Ġsimpl": 7527,
      "eate": 7528,
      "ĠMartin": 7529,
      "Ġ93": 7530,
      "ĠAuthor": 7531,
      "Ġcompact": 7532,
      "ĠGB": 7533,
      "Ġdispos": 7534,
      "ĠCasino": 7535,
      "illiant": 7536,
      "Ġremoval": 7537,
      "24": 7538,
      "atoes": 7539,
      "Ġcommunications": 7540,
      "AB": 7541,
      "Ġ1998": 7542,
      "ĠSC": 7543,
      "ĠRichard": 7544,
      "Ġconfiguration": 7545,
      "Ġsetup": 7546,
      "ĠVery": 7547,
      "Ġflash": 7548,
      "Ġstored": 7549,
      "ĠOk": 7550,
      "Ġcontribution": 7551,
      "Ġdefense": 7552,
      "ĠLearn": 7553,
      "ĠKeep": 7554,
      "ĠJim": 7555,
      "ictory": 7556,
      "Ġsegment": 7557,
      "ĠLive": 7558,
      "ĠExperi": 7559,
      "Ġfolks": 7560,
      "quality": 7561,
      "Ġintroduction": 7562,
      "ĠLine": 7563,
      "Ġcategories": 7564,
      "Ġgraduate": 7565,
      "Ġdental": 7566,
      "fined": 7567,
      "ĠAbout": 7568,
      "ĠDigital": 7569,
      "Ġdisappoint": 7570,
      "Ġencounter": 7571,
      "ĠItaly": 7572,
      "ĠProte": 7573,
      "ĠLog": 7574,
      "MP": 7575,
      "nz": 7576,
      "ĠPoint": 7577,
      "ĠFar": 7578,
      "Ġoriginally": 7579,
      "Ġdip": 7580,
      "Ġ.(": 7581,
      "ĠLED": 7582,
      "profit": 7583,
      "Ġarray": 7584,
      "engthen": 7585,
      "ĠProceedings": 7586,
      "Ġepisode": 7587,
      "Ġplatforms": 7588,
      "ifies": 7589,
      "Ġhorse": 7590,
      "Ġforth": 7591,
      "Ġroot": 7592,
      "iano": 7593,
      "Ġspiritual": 7594,
      "Ġmac": 7595,
      "Ġmeals": 7596,
      "ventional": 7597,
      "Ġblocks": 7598,
      "Ġgrew": 7599,
      "Ġgun": 7600,
      "Ġobjective": 7601,
      "Ġattractive": 7602,
      "ursing": 7603,
      "Ġadds": 7604,
      "ĠHi": 7605,
      "Ġpresents": 7606,
      "ĠRest": 7607,
      "ĠHard": 7608,
      "Ġpreserv": 7609,
      "Ġborder": 7610,
      "ĠCoast": 7611,
      "Last": 7612,
      "ĠSmall": 7613,
      "Ġimpossible": 7614,
      "Ġ79": 7615,
      "Ġprinciples": 7616,
      "ĠFort": 7617,
      "anges": 7618,
      "Ġhang": 7619,
      "ĠKim": 7620,
      "Ġmur": 7621,
      "Ġsustainable": 7622,
      "ĠAngeles": 7623,
      "Ġdealing": 7624,
      "ample": 7625,
      "acked": 7626,
      "uls": 7627,
      "amo": 7628,
      "Ġna": 7629,
      "Ġexposure": 7630,
      "host": 7631,
      "ĠSupport": 7632,
      "Ġrecording": 7633,
      "awa": 7634,
      "Ġplanet": 7635,
      "tex": 7636,
      "Ġpod": 7637,
      "ĠGir": 7638,
      "gener": 7639,
      "ĠPrice": 7640,
      "HS": 7641,
      "uggle": 7642,
      "Ġhero": 7643,
      "Ġ94": 7644,
      "Ġstim": 7645,
      "Ġliterature": 7646,
      "Ġsufficient": 7647,
      "Ġlaugh": 7648,
      "Ġterr": 7649,
      "ĠStudents": 7650,
      "holders": 7651,
      "Ġmaps": 7652,
      "oli": 7653,
      "Ġboxes": 7654,
      "Ġrecognize": 7655,
      "Ñı": 7656,
      "ourse": 7657,
      "ĠChie": 7658,
      "Ġarrive": 7659,
      "Ġcounty": 7660,
      "forcement": 7661,
      "Ġimmediate": 7662,
      "Ġpowder": 7663,
      "CO": 7664,
      "Ġviewed": 7665,
      "ĠSearch": 7666,
      "uli": 7667,
      "Ġproven": 7668,
      "ĠAmericans": 7669,
      "Ġchapter": 7670,
      "VER": 7671,
      "hm": 7672,
      "Ġpassing": 7673,
      "ctric": 7674,
      "Ġprogramming": 7675,
      "Ġsubmitted": 7676,
      "Ġfacts": 7677,
      "Ġdrawing": 7678,
      "ĠDub": 7679,
      "ĠScot": 7680,
      "Ġlistening": 7681,
      "âĢĭ": 7682,
      "Ġexistence": 7683,
      "eo": 7684,
      "Ġ:=": 7685,
      "Ġfiled": 7686,
      "Ġmanif": 7687,
      "AA": 7688,
      "teers": 7689,
      "Ġtank": 7690,
      "Ġdeposit": 7691,
      "Ġforced": 7692,
      "amps": 7693,
      "Ġflood": 7694,
      "ĠConf": 7695,
      "Ġori": 7696,
      "Ġunce": 7697,
      "ĠSS": 7698,
      "Ġcommittee": 7699,
      "Ġtro": 7700,
      "Ġ89": 7701,
      "Over": 7702,
      "Ġdatas": 7703,
      "Ġrug": 7704,
      "Ġhoriz": 7705,
      "AY": 7706,
      "owned": 7707,
      "Ġarti": 7708,
      "Ġfigures": 7709,
      "Ġdangerous": 7710,
      "ults": 7711,
      "Ġhyp": 7712,
      "ĠFederal": 7713,
      "Ġdual": 7714,
      "ĠIl": 7715,
      "Ġrice": 7716,
      "enever": 7717,
      "ĠEp": 7718,
      "Ġgrass": 7719,
      "RS": 7720,
      "Ġinformed": 7721,
      "Ġlimits": 7722,
      "Ġplot": 7723,
      "Ġprimarily": 7724,
      "ĠImage": 7725,
      "Ġlinked": 7726,
      "Ġreader": 7727,
      "Ġvariable": 7728,
      "Ġerrors": 7729,
      "Ġinteract": 7730,
      "ardens": 7731,
      "Ġaccord": 7732,
      "Ġheav": 7733,
      "Ġvisited": 7734,
      "ĠDev": 7735,
      "Ġquote": 7736,
      "ĠCharles": 7737,
      "Ġreducing": 7738,
      "Ġwhenever": 7739,
      "Ġtelling": 7740,
      "Ġliked": 7741,
      "More": 7742,
      "Ġappeal": 7743,
      "ĠAtt": 7744,
      "Ġwooden": 7745,
      "nknow": 7746,
      "ĠTen": 7747,
      "Ġclothing": 7748,
      "ĠBow": 7749,
      "ĠHistory": 7750,
      "gging": 7751,
      "RL": 7752,
      "Ġrealized": 7753,
      "Ġrecipes": 7754,
      "Ġtomorrow": 7755,
      "imp": 7756,
      "Ġofficer": 7757,
      "Ġstudied": 7758,
      "Ġeligible": 7759,
      "Ġamounts": 7760,
      "Ġsections": 7761,
      "Press": 7762,
      "Ġattacks": 7763,
      "Ġinvited": 7764,
      "Ġraw": 7765,
      "Ġconcepts": 7766,
      "Ġnegoti": 7767,
      "Ġtreatments": 7768,
      "Ġinvolves": 7769,
      "ials": 7770,
      "ubs": 7771,
      "abil": 7772,
      "Ġweekly": 7773,
      "ĠInstagram": 7774,
      "ĠSH": 7775,
      "icians": 7776,
      "Ġhistoric": 7777,
      "emble": 7778,
      "ĠDie": 7779,
      "Ġconsideration": 7780,
      "law": 7781,
      "Ġargument": 7782,
      "Ġrelief": 7783,
      "elly": 7784,
      "Ġreputation": 7785,
      "apt": 7786,
      "Ġnutr": 7787,
      "Ġheating": 7788,
      "Ġconnections": 7789,
      "Ġresume": 7790,
      "Ġlayers": 7791,
      "Ñĸ": 7792,
      "greg": 7793,
      "ĠBoston": 7794,
      "Ġcru": 7795,
      "ĠMobile": 7796,
      "Ġelegant": 7797,
      "Ġuniform": 7798,
      "roduction": 7799,
      "Ġattended": 7800,
      "reen": 7801,
      "ĠIreland": 7802,
      "Ġha": 7803,
      "ĠProper": 7804,
      "perso": 7805,
      "aduate": 7806,
      "Ġindustries": 7807,
      "Ġmortgage": 7808,
      "Ġgate": 7809,
      "Ġbridge": 7810,
      "ĠFREE": 7811,
      "ĠBob": 7812,
      "Ġapplicable": 7813,
      "Ġrequirement": 7814,
      "oms": 7815,
      "Ġembed": 7816,
      "Ġft": 7817,
      "Ġgrav": 7818,
      "Ġsusp": 7819,
      "Ġtaxes": 7820,
      "ĠSoftware": 7821,
      "esting": 7822,
      "ĠBible": 7823,
      "ĠØ": 7824,
      "Ġtie": 7825,
      "Ġbars": 7826,
      "Ġprobability": 7827,
      "ĠBeaut": 7828,
      "Ġduty": 7829,
      "Ġavailability": 7830,
      "Ġdetection": 7831,
      "irts": 7832,
      "Ġathlet": 7833,
      "Ġ1990": 7834,
      "ĠHospital": 7835,
      "Ġgenuine": 7836,
      "enger": 7837,
      "ĠTimes": 7838,
      "rin": 7839,
      "Ġ180": 7840,
      "tible": 7841,
      "Ġmagazine": 7842,
      "Ġarms": 7843,
      "Ð²": 7844,
      "Ġdraft": 7845,
      "rtaint": 7846,
      "ĠVirginia": 7847,
      "Ġchief": 7848,
      "Ġprinting": 7849,
      "anch": 7850,
      "Ġoptimal": 7851,
      "Ġhandling": 7852,
      "Ġgap": 7853,
      "DS": 7854,
      "iven": 7855,
      "ĠGeorg": 7856,
      "!!!!": 7857,
      "Ġproducing": 7858,
      "Ġoffices": 7859,
      "friendly": 7860,
      "Ġrecommendations": 7861,
      "ĠDef": 7862,
      "vy": 7863,
      "Ġawarded": 7864,
      "Ġsaved": 7865,
      "Ġsofa": 7866,
      "Ġguard": 7867,
      "19": 7868,
      "ainers": 7869,
      "emy": 7870,
      "ĠLittle": 7871,
      "Ġsmile": 7872,
      "ĠJun": 7873,
      "Ġportfolio": 7874,
      "Ġhers": 7875,
      "rick": 7876,
      "Ġlosing": 7877,
      "Ġfirms": 7878,
      "ĠPlace": 7879,
      "Ġconfirmed": 7880,
      "aze": 7881,
      "rog": 7882,
      "van": 7883,
      "ĠSky": 7884,
      "Ġcrew": 7885,
      "Ġfounded": 7886,
      "emi": 7887,
      "Ġcapabilities": 7888,
      "ĠBox": 7889,
      "cy": 7890,
      "Ġceremo": 7891,
      "ulf": 7892,
      "Ġguitar": 7893,
      "wich": 7894,
      "Ġenterprise": 7895,
      "ĠWeek": 7896,
      "Ġsatisf": 7897,
      "ĠWhich": 7898,
      "Ġfinance": 7899,
      "Ġflour": 7900,
      "Ġgeomet": 7901,
      "ĠRos": 7902,
      "Ġcolumn": 7903,
      "Ġinjuries": 7904,
      "Ġinsight": 7905,
      "entle": 7906,
      "win": 7907,
      "ealand": 7908,
      "Ġtip": 7909,
      "ĠPop": 7910,
      "ĠAri": 7911,
      "ashed": 7912,
      "Ð¼": 7913,
      "Ġbodies": 7914,
      "Ġcontrolled": 7915,
      "Ġdisplayed": 7916,
      "Ġpink": 7917,
      "Ġeast": 7918,
      "Ġcircuit": 7919,
      "Ġfestival": 7920,
      "zes": 7921,
      "Ġspecified": 7922,
      "Inter": 7923,
      "Bl": 7924,
      "ĠOS": 7925,
      "ĠSometimes": 7926,
      "alse": 7927,
      "ĠChampions": 7928,
      "Ġsuperior": 7929,
      "Ġanticip": 7930,
      "Ġteen": 7931,
      "ĠGarden": 7932,
      "dri": 7933,
      "ĠPack": 7934,
      "Ġvul": 7935,
      "70": 7936,
      "TER": 7937,
      "ĠÎº": 7938,
      "ĠBall": 7939,
      "Hi": 7940,
      "ĠMoreover": 7941,
      "vas": 7942,
      "iders": 7943,
      "Ġspecialist": 7944,
      "Ġcontaining": 7945,
      "ello": 7946,
      "site": 7947,
      "Ġusage": 7948,
      "ĠSports": 7949,
      "irement": 7950,
      "Ġdiagram": 7951,
      "Ġstrict": 7952,
      "Ġtack": 7953,
      "Ġprot": 7954,
      "áĦħ": 7955,
      "Ġsensitive": 7956,
      "otic": 7957,
      "Ġtall": 7958,
      "gence": 7959,
      "Ġtrick": 7960,
      "Ġsuggestions": 7961,
      "missions": 7962,
      "ĠSuch": 7963,
      "Ġfinite": 7964,
      "Ġseats": 7965,
      "ĠExpl": 7966,
      "Ġlock": 7967,
      "Ġsending": 7968,
      "ĠEnjoy": 7969,
      "Ġnarrow": 7970,
      "ĠVan": 7971,
      "ĠGames": 7972,
      "ĠNov": 7973,
      "Ġcommonly": 7974,
      "ĠMulti": 7975,
      "Ġmoves": 7976,
      "het": 7977,
      "!\"": 7978,
      "vince": 7979,
      "olar": 7980,
      "Figure": 7981,
      "Ġpreferred": 7982,
      "Ġfundamental": 7983,
      "ĠPage": 7984,
      "Ġmile": 7985,
      "Ġultimate": 7986,
      "Ġslowly": 7987,
      "pass": 7988,
      "Ġchose": 7989,
      "Ġstri": 7990,
      "Ġtransl": 7991,
      "ÌĨ": 7992,
      "ĠExecutive": 7993,
      "ĠInsurance": 7994,
      "ĠDan": 7995,
      "Ġsurprised": 7996,
      "Ġaccomplish": 7997,
      "Ġhealing": 7998,
      "gent": 7999,
      "ĠRef": 8000,
      "ĠSM": 8001,
      "ĠSpirit": 8002,
      "ĠFinally": 8003,
      "eption": 8004,
      "Ġacceler": 8005,
      "Ġlegs": 8006,
      "Ġrein": 8007,
      "Ġstability": 8008,
      "iest": 8009,
      "Ġnaturally": 8010,
      "Ġexceptional": 8011,
      "ĠPract": 8012,
      "ĠEnt": 8013,
      "ĠCarolina": 8014,
      "Ġvibr": 8015,
      "ĠEnvironment": 8016,
      "Ġfrustr": 8017,
      "ĠGuide": 8018,
      "ĠMax": 8019,
      "Ġdivid": 8020,
      "ĠRen": 8021,
      "ĠTrust": 8022,
      "lymp": 8023,
      "ĠSeat": 8024,
      "Ġelev": 8025,
      "Ġpricing": 8026,
      "amber": 8027,
      "Ġrefr": 8028,
      "Ġvisible": 8029,
      "ĠColumb": 8030,
      "rieved": 8031,
      "aka": 8032,
      "Ġempty": 8033,
      "Ġcontrols": 8034,
      "iteria": 8035,
      "Ġforum": 8036,
      "inter": 8037,
      "ĠVill": 8038,
      "isk": 8039,
      "Ġwriters": 8040,
      "ĠNat": 8041,
      "htt": 8042,
      "dimensional": 8043,
      "Ġcrisis": 8044,
      "Ġrequests": 8045,
      "icts": 8046,
      "hal": 8047,
      "áĦĢ": 8048,
      "Rec": 8049,
      "Ġsevere": 8050,
      "appe": 8051,
      "ela": 8052,
      "ĠMathemat": 8053,
      "Ġpermanent": 8054,
      "ĠSanta": 8055,
      "formance": 8056,
      "edia": 8057,
      "Ġdevelopers": 8058,
      "ĠZealand": 8059,
      "ĠWebs": 8060,
      "hire": 8061,
      "EA": 8062,
      "agues": 8063,
      "Ġchairs": 8064,
      "ĠDani": 8065,
      "rot": 8066,
      "rated": 8067,
      "Ġpercentage": 8068,
      "ila": 8069,
      "Ġsucceed": 8070,
      "Bu": 8071,
      "Ġattorney": 8072,
      "ĠFinancial": 8073,
      "Ġdriven": 8074,
      "Ġmerch": 8075,
      "Ġflower": 8076,
      "Ġguidelines": 8077,
      "Ġpour": 8078,
      "ĠEli": 8079,
      "Ġsatisfied": 8080,
      "ĠJeff": 8081,
      "BI": 8082,
      "ĠYoung": 8083,
      "ĠMike": 8084,
      "Ġhotels": 8085,
      "ĠBath": 8086,
      "ĠLow": 8087,
      "Ġseriously": 8088,
      "Ġmuscle": 8089,
      "Ġsti": 8090,
      "olds": 8091,
      "Ġcompliance": 8092,
      "oret": 8093,
      "Have": 8094,
      "ĠSouthern": 8095,
      "Ġroles": 8096,
      "ĠTraining": 8097,
      "Ġexception": 8098,
      "Ġstatements": 8099,
      "Ġdestroy": 8100,
      "Ġcontributions": 8101,
      "ĠTech": 8102,
      "Ġcovering": 8103,
      "Ġcharm": 8104,
      "Ġlucky": 8105,
      "Cons": 8106,
      "Ġmemories": 8107,
      "Ġenjoying": 8108,
      "Ġreject": 8109,
      "edge": 8110,
      "Ġsomewhere": 8111,
      "Ġceiling": 8112,
      "Ġexpressed": 8113,
      "Ġhoping": 8114,
      "brid": 8115,
      "iffer": 8116,
      "nions": 8117,
      "Ġfas": 8118,
      "nym": 8119,
      "ĠÎĽ": 8120,
      "Ġlikes": 8121,
      "Ġrecyc": 8122,
      "Ġapproval": 8123,
      "May": 8124,
      "Ġindicate": 8125,
      "Ġswimming": 8126,
      "Ġdistinct": 8127,
      "Ġscored": 8128,
      "ori": 8129,
      "apore": 8130,
      "lde": 8131,
      "Ġillness": 8132,
      "Ġsick": 8133,
      "Ġmarriage": 8134,
      "olid": 8135,
      "Ġmand": 8136,
      "ĠCy": 8137,
      "Ġclimb": 8138,
      "Ġstrongly": 8139,
      "Ġcommunicate": 8140,
      "Ġtoile": 8141,
      "Ġhung": 8142,
      "Ġrenov": 8143,
      "ĠÙ": 8144,
      "Mo": 8145,
      "Ġdefend": 8146,
      "EG": 8147,
      "ĠFore": 8148,
      "Ġconfident": 8149,
      "Ġoccurs": 8150,
      "Ġangle": 8151,
      "Ġtracks": 8152,
      "Ġupgrade": 8153,
      "war": 8154,
      "uling": 8155,
      "ĠEas": 8156,
      "Ġexpla": 8157,
      "live": 8158,
      "zil": 8159,
      "Ġspectrum": 8160,
      "Ġ1997": 8161,
      "Ġsubscri": 8162,
      "ä¸": 8163,
      "Ġvent": 8164,
      "Ġundert": 8165,
      "Ġsuggests": 8166,
      "Ġdirected": 8167,
      "Ġtracking": 8168,
      "Ġsupplement": 8169,
      "Ġawards": 8170,
      "áĦī": 8171,
      "Ġcot": 8172,
      "adow": 8173,
      "Ġtransaction": 8174,
      "26": 8175,
      "Ġtooth": 8176,
      "Ġpurchasing": 8177,
      "ĠSite": 8178,
      "Ġagric": 8179,
      "ĠAsh": 8180,
      "Ñĭ": 8181,
      "lywood": 8182,
      "ĠArea": 8183,
      "Ġhospit": 8184,
      "Ġheads": 8185,
      "ĠâĪ¼": 8186,
      "iences": 8187,
      "Ġvariables": 8188,
      "Ġpersons": 8189,
      "ĠStore": 8190,
      "Ġ':": 8191,
      "Ġpackages": 8192,
      "Ġopposite": 8193,
      "Ġwhilst": 8194,
      "elled": 8195,
      "Ġshooting": 8196,
      "Ġultimately": 8197,
      "Ġ2022": 8198,
      "lude": 8199,
      "ĠLaur": 8200,
      "sm": 8201,
      "Ġmagic": 8202,
      "inu": 8203,
      "Ġresort": 8204,
      "Ġgraphics": 8205,
      "Ġworst": 8206,
      "tood": 8207,
      "Ġpleasure": 8208,
      "Tube": 8209,
      "RI": 8210,
      "ĠUSB": 8211,
      "Ġcabinet": 8212,
      "Ġensuring": 8213,
      "Oh": 8214,
      "Next": 8215,
      "ien": 8216,
      "Ġcharacteristics": 8217,
      "Ġmale": 8218,
      "Ġcalendar": 8219,
      "Ġsubstit": 8220,
      "Ġsight": 8221,
      "Ġextent": 8222,
      "ĠModern": 8223,
      "Ġmeasured": 8224,
      "Ġseed": 8225,
      "pir": 8226,
      "iversary": 8227,
      "high": 8228,
      "ĠJohnso": 8229,
      "Ġcu": 8230,
      "ĠJohnson": 8231,
      "ij": 8232,
      "Ġpriority": 8233,
      "Ġmanagers": 8234,
      "nknown": 8235,
      "Ġblank": 8236,
      "inding": 8237,
      "Ġsoc": 8238,
      "Ġconsumption": 8239,
      "Ġseaso": 8240,
      "ĠMethod": 8241,
      "ele": 8242,
      "Ġstake": 8243,
      "Ġbasically": 8244,
      "Ġmillions": 8245,
      "Ġjoining": 8246,
      "Ġfits": 8247,
      "Mar": 8248,
      "ĠMir": 8249,
      "ĠPacific": 8250,
      "ambling": 8251,
      "pendent": 8252,
      "Ġdimension": 8253,
      "Ġexplo": 8254,
      "Î´": 8255,
      "ĠBul": 8256,
      "Ġpin": 8257,
      "timate": 8258,
      "ĠNight": 8259,
      "Ġkne": 8260,
      "Ġalongside": 8261,
      "FC": 8262,
      "ĠEss": 8263,
      "Ġhabit": 8264,
      "Ġofficers": 8265,
      "Ġrefund": 8266,
      "Ġben": 8267,
      "Ġmarks": 8268,
      "Ġnewly": 8269,
      "Ġacts": 8270,
      "mm": 8271,
      "ĠMarketing": 8272,
      "Ġaside": 8273,
      "Ġincredibly": 8274,
      "Ġtransmission": 8275,
      "Ġcorrectly": 8276,
      "ounded": 8277,
      "'.": 8278,
      "ĠAnnual": 8279,
      "Ġlad": 8280,
      "eff": 8281,
      "ĠLiving": 8282,
      "Ġmatches": 8283,
      "ĠZhang": 8284,
      "ĠChief": 8285,
      "ulator": 8286,
      "ymp": 8287,
      "Ġauthorities": 8288,
      "Ġlayout": 8289,
      "ĠKitchen": 8290,
      "pace": 8291,
      "ĠTry": 8292,
      "Ġcombine": 8293,
      "apy": 8294,
      "Although": 8295,
      "Ġchecking": 8296,
      "Ġstrengthen": 8297,
      "Ġelectro": 8298,
      "âĢĻ,": 8299,
      "Ġyounge": 8300,
      "Ġexhibition": 8301,
      "ĠáĦĭáħ": 8302,
      "Ġyounger": 8303,
      "ĠModel": 8304,
      "Ġsomewhat": 8305,
      "Ġphenomen": 8306,
      "ĠNature": 8307,
      "Ġengaged": 8308,
      "Ġstreets": 8309,
      "Ġrepresented": 8310,
      "ĠPS": 8311,
      "Ġeggs": 8312,
      "etry": 8313,
      "ĠâĬĹ": 8314,
      "neys": 8315,
      "Ġlens": 8316,
      "Ġconcerning": 8317,
      "Ġdent": 8318,
      "Ġdiamond": 8319,
      "whel": 8320,
      "ĠWild": 8321,
      "ĠOs": 8322,
      "ĠField": 8323,
      "Ġutility": 8324,
      "Ġame": 8325,
      "Ġcausing": 8326,
      "ĠSmart": 8327,
      "ĠÎ¦": 8328,
      "ĠSpace": 8329,
      "âĢĺ": 8330,
      "ĠOpt": 8331,
      "ĠCast": 8332,
      "Ġbelieved": 8333,
      "Ġnarr": 8334,
      "ilder": 8335,
      "Ġoutcomes": 8336,
      "ĠHor": 8337,
      "Ġneighb": 8338,
      "ĠNon": 8339,
      "Ġtranspar": 8340,
      "Ġentit": 8341,
      "Ġder": 8342,
      "making": 8343,
      "ĠKingdom": 8344,
      "ĠKa": 8345,
      "elry": 8346,
      "Ġboundary": 8347,
      "ĠPolice": 8348,
      "ĠDid": 8349,
      "nut": 8350,
      "ĠVideo": 8351,
      "Î·": 8352,
      "ĠPot": 8353,
      "Whe": 8354,
      "Ġpanels": 8355,
      "Ġrobust": 8356,
      "isted": 8357,
      "ĠRight": 8358,
      "Ġcounc": 8359,
      "Ġreaction": 8360,
      "ĠWH": 8361,
      "Ġlists": 8362,
      "Great": 8363,
      "iour": 8364,
      "ĠCON": 8365,
      "Ġilleg": 8366,
      "à¥": 8367,
      "Ġcoal": 8368,
      "Ġextreme": 8369,
      "ĠOrder": 8370,
      "Ġdishes": 8371,
      "Ġads": 8372,
      "Ġfactory": 8373,
      "type": 8374,
      "Ġsymbol": 8375,
      "?âĢĿ": 8376,
      "ĠManu": 8377,
      "Ġpromise": 8378,
      "Ġpeak": 8379,
      "Ġbehalf": 8380,
      "Ġregardless": 8381,
      "redit": 8382,
      "Ġprospect": 8383,
      "Ġ1996": 8384,
      "Ġdynamics": 8385,
      "Ġstainless": 8386,
      "una": 8387,
      "áĦĥ": 8388,
      "Ġincident": 8389,
      "Ġcrazy": 8390,
      "Ġcrowd": 8391,
      "Ġmaintaining": 8392,
      "Ġvulner": 8393,
      "Ġforest": 8394,
      "Ġterror": 8395,
      "CS": 8396,
      "Ġdecade": 8397,
      "Per": 8398,
      "nosis": 8399,
      "ectives": 8400,
      "Ġtradition": 8401,
      "Ġviolence": 8402,
      "too": 8403,
      "Ġcrime": 8404,
      "print": 8405,
      "Ġcookies": 8406,
      "Ġtransformation": 8407,
      "ĠIslam": 8408,
      "Ġpotentially": 8409,
      "mob": 8410,
      "acker": 8411,
      "arts": 8412,
      "ĠJones": 8413,
      "ĠObama": 8414,
      "Ġdemonstrate": 8415,
      "Ġlaser": 8416,
      "Ġfaculty": 8417,
      "Ġpermit": 8418,
      "Ġbrilliant": 8419,
      "inder": 8420,
      "Ġforever": 8421,
      "Ġinject": 8422,
      "Ġbuyers": 8423,
      "Sc": 8424,
      "tol": 8425,
      "Ed": 8426,
      "ĠStone": 8427,
      "See": 8428,
      "Ġcolours": 8429,
      "ĠLook": 8430,
      "Ġautomatic": 8431,
      "Ġimplemented": 8432,
      "Ġtrim": 8433,
      "igate": 8434,
      "ifth": 8435,
      "Ġinvolving": 8436,
      "ĠDO": 8437,
      "Ġcareful": 8438,
      "CL": 8439,
      "ĠSale": 8440,
      "ĠQuality": 8441,
      "rine": 8442,
      "Ġlift": 8443,
      "ĠHP": 8444,
      "Ġconflict": 8445,
      "Ġinteractive": 8446,
      "Up": 8447,
      "Ġcomplicated": 8448,
      "Ġproposal": 8449,
      "BM": 8450,
      "Ġincreasingly": 8451,
      "ESS": 8452,
      "Ġcriteria": 8453,
      "Ġster": 8454,
      "holder": 8455,
      "Ġbone": 8456,
      "Ġkill": 8457,
      "tie": 8458,
      "Ġjustice": 8459,
      "Ġanswe": 8460,
      "Ġblow": 8461,
      "Ġnecessarily": 8462,
      "Ġreb": 8463,
      "Ġlatter": 8464,
      "istical": 8465,
      "ĠFL": 8466,
      "Ġtex": 8467,
      "Ġhonor": 8468,
      "Ġtill": 8469,
      "nations": 8470,
      "Ġmechanism": 8471,
      "illy": 8472,
      "Ġcush": 8473,
      "Today": 8474,
      "Ġvintage": 8475,
      "Ġnuclear": 8476,
      "Ġbirds": 8477,
      "Ġoutcome": 8478,
      "Ġfunny": 8479,
      "Ġcontainer": 8480,
      "Ġintent": 8481,
      "ĠSta": 8482,
      "inf": 8483,
      "linear": 8484,
      "Ġtagged": 8485,
      "Ġvegetables": 8486,
      "orters": 8487,
      "nas": 8488,
      "taining": 8489,
      "Ġholes": 8490,
      "Wor": 8491,
      "Ġ',": 8492,
      "Ġcontained": 8493,
      "onto": 8494,
      "Ġmirror": 8495,
      "bury": 8496,
      "Ġholidays": 8497,
      "Ġphr": 8498,
      "ĠNorthern": 8499,
      "yal": 8500,
      "Ġentrance": 8501,
      "ĠShould": 8502,
      "uminum": 8503,
      "ĠUt": 8504,
      "ĠNa": 8505,
      "ĠOlymp": 8506,
      "xic": 8507,
      "Ġintelligence": 8508,
      "Ġfeelings": 8509,
      "rove": 8510,
      "Ġdreams": 8511,
      "Î©": 8512,
      "Ġsuffering": 8513,
      "During": 8514,
      "Ġlect": 8515,
      "ĠStudies": 8516,
      "ĠBuilding": 8517,
      "Ġrequested": 8518,
      "ĠSEO": 8519,
      "Ġhumans": 8520,
      "Ġposting": 8521,
      "Ġdirections": 8522,
      "Ġcritic": 8523,
      "ĠOw": 8524,
      "Ġinsert": 8525,
      "agen": 8526,
      "iana": 8527,
      "!)": 8528,
      "ĠLocal": 8529,
      "lder": 8530,
      "city": 8531,
      "PN": 8532,
      "Ġdefeat": 8533,
      "ĠMichigan": 8534,
      "Ġmarked": 8535,
      "Ġdropped": 8536,
      "Ġdiff": 8537,
      "Ġgauge": 8538,
      "ĠHaving": 8539,
      "proof": 8540,
      "Ġspr": 8541,
      "Ġclock": 8542,
      "odge": 8543,
      "Ġhydro": 8544,
      "Ġà¤": 8545,
      "Ġherself": 8546,
      "draw": 8547,
      "ĠAirport": 8548,
      "Ġloving": 8549,
      "ĠLuc": 8550,
      "Ġevaluate": 8551,
      "Ġtrib": 8552,
      "Ġspray": 8553,
      "eah": 8554,
      "Cr": 8555,
      "Ġsuppliers": 8556,
      "Ġdimensions": 8557,
      "ĠConnect": 8558,
      "ĠDVD": 8559,
      "Ġmattress": 8560,
      "ĠFlo": 8561,
      "ĠDisney": 8562,
      "Ġshots": 8563,
      "len": 8564,
      "Ġstatistics": 8565,
      "ĠVo": 8566,
      "Ġstruggle": 8567,
      "Ġarbit": 8568,
      "FT": 8569,
      "position": 8570,
      "Ġdistributed": 8571,
      "Î¾": 8572,
      "Ġcertificate": 8573,
      "izza": 8574,
      "ĠCB": 8575,
      "ĠTax": 8576,
      "ĠOhio": 8577,
      "anguage": 8578,
      "Ñķ": 8579,
      "Ġprotocol": 8580,
      "ĠPA": 8581,
      "ographic": 8582,
      "Ġfrag": 8583,
      "Ġstudying": 8584,
      "urious": 8585,
      "ĠWilliams": 8586,
      "cking": 8587,
      "Ì§": 8588,
      "athy": 8589,
      "ĠFrancisco": 8590,
      "ĠThree": 8591,
      "ĠCN": 8592,
      "tream": 8593,
      "hers": 8594,
      "ifier": 8595,
      "Ġtransactions": 8596,
      "Ġlets": 8597,
      "Ġvenue": 8598,
      "ĠYouTube": 8599,
      "vironments": 8600,
      "Ġauthentic": 8601,
      "Ġreform": 8602,
      "ĠRoman": 8603,
      "LS": 8604,
      "Ġtalks": 8605,
      "Ġadm": 8606,
      "ĠSilver": 8607,
      "áĦĴ": 8608,
      "Ġmultip": 8609,
      "Ġvictory": 8610,
      "Ġcoe": 8611,
      "Ġsuns": 8612,
      "Ġleague": 8613,
      "Ġcontinuing": 8614,
      "ECT": 8615,
      "Ġlisting": 8616,
      "arry": 8617,
      "ĠNatural": 8618,
      "Ġphones": 8619,
      "ulpt": 8620,
      "Ġclassical": 8621,
      "ĠLabor": 8622,
      "mic": 8623,
      "Ġacquis": 8624,
      "including": 8625,
      "Ġaccommodation": 8626,
      "iently": 8627,
      "ĠâĪĩ": 8628,
      "Ġdecent": 8629,
      "Ġsatisfaction": 8630,
      "Ġrose": 8631,
      "bec": 8632,
      "Ġcenters": 8633,
      "riers": 8634,
      "Ġlies": 8635,
      "nium": 8636,
      "Ġfunctionality": 8637,
      "ĠAdditionally": 8638,
      "Ġlesso": 8639,
      "Ġdrinks": 8640,
      "real": 8641,
      "Ġtraveling": 8642,
      "Ġabuse": 8643,
      "rd": 8644,
      "Ġlesson": 8645,
      "Ġ))": 8646,
      "Ġfilling": 8647,
      "ĠClea": 8648,
      "Ab": 8649,
      "Ġstages": 8650,
      "Ġwalked": 8651,
      "ĠPersonal": 8652,
      "Ġdrinking": 8653,
      "ĠâĦĵ": 8654,
      "Ġsurprising": 8655,
      "Ġscratch": 8656,
      "Ġstuck": 8657,
      "aylor": 8658,
      "Ġimprovements": 8659,
      "Ġlaptop": 8660,
      "Ġtemperatures": 8661,
      "iche": 8662,
      "áħ®": 8663,
      "Ġsensor": 8664,
      "28": 8665,
      "Ġanyway": 8666,
      "Ġgra": 8667,
      "Ġaircraft": 8668,
      "Ġbreaking": 8669,
      "Ġoverwhel": 8670,
      "Ġanxiety": 8671,
      "ĠId": 8672,
      "Ġsubjects": 8673,
      "Ġcompletion": 8674,
      "Ġinteractions": 8675,
      "ĠSales": 8676,
      "ludes": 8677,
      "ui": 8678,
      "Ġpatio": 8679,
      "ĠBang": 8680,
      "born": 8681,
      "Ġ)(": 8682,
      "Ġcurt": 8683,
      "Ġclo": 8684,
      "phones": 8685,
      "Ġflexibility": 8686,
      "Ġstronge": 8687,
      "aken": 8688,
      "Ġstronger": 8689,
      "Ġliber": 8690,
      "Wher": 8691,
      "ĠSummer": 8692,
      "Ġorganisation": 8693,
      "Ġeverywhere": 8694,
      "Ġspots": 8695,
      "Ġcarrying": 8696,
      "Ġchances": 8697,
      "ansas": 8698,
      "Ġmatching": 8699,
      "Ġvolunteers": 8700,
      "lan": 8701,
      "Ġmeasurement": 8702,
      "Ġgreatly": 8703,
      "ailing": 8704,
      "Ġij": 8705,
      "Ġtutorial": 8706,
      "Ġ700": 8707,
      "Ġdrawn": 8708,
      "Ġcontest": 8709,
      "Ġdoctors": 8710,
      "Ġoptimization": 8711,
      "Ġfighting": 8712,
      "ERS": 8713,
      "Ġspeaker": 8714,
      "page": 8715,
      "ĠTheory": 8716,
      "Ġunw": 8717,
      "Ġadvent": 8718,
      "Ġbreast": 8719,
      "ĠPak": 8720,
      "front": 8721,
      "Ġdivision": 8722,
      "rect": 8723,
      "Ġ1995": 8724,
      "Ġhence": 8725,
      "Ġfluid": 8726,
      "Net": 8727,
      "ĠEth": 8728,
      "Ø§Ù": 8729,
      "DP": 8730,
      "allel": 8731,
      "ĠUnf": 8732,
      "Ġvolt": 8733,
      "ĠIran": 8734,
      "ĠFeat": 8735,
      "Even": 8736,
      "ĠDivision": 8737,
      "mentary": 8738,
      "Ġjuice": 8739,
      "nyl": 8740,
      "Ġedges": 8741,
      "Ġlanguages": 8742,
      "ĠLO": 8743,
      "ĠColl": 8744,
      "cover": 8745,
      "Ġchecked": 8746,
      "ĠProfessional": 8747,
      "Ġyards": 8748,
      "ĠÏĩ": 8749,
      "Ġassociation": 8750,
      "UM": 8751,
      "Ġfinds": 8752,
      "hs": 8753,
      "ÏĪ": 8754,
      "Ġunus": 8755,
      "Ġelectricity": 8756,
      "Ġorange": 8757,
      "ĠGP": 8758,
      "Of": 8759,
      "Ġstaying": 8760,
      "Ġgaming": 8761,
      "abetes": 8762,
      "Ġrecip": 8763,
      "ĠEX": 8764,
      "rooms": 8765,
      "Ġtone": 8766,
      "Ġtrash": 8767,
      "ĠRadio": 8768,
      "Ġpossess": 8769,
      "mong": 8770,
      "ĠFord": 8771,
      "ĠTool": 8772,
      "table": 8773,
      "Col": 8774,
      "27": 8775,
      "Ġlowest": 8776,
      "Ġtile": 8777,
      "Ġwarranty": 8778,
      "Ġaccordance": 8779,
      "ĠCS": 8780,
      "Ġacting": 8781,
      "ĠHon": 8782,
      "Ġhopes": 8783,
      "ĠSteel": 8784,
      "En": 8785,
      "ĠFurthermore": 8786,
      "Ġtissue": 8787,
      "ĠWelcome": 8788,
      "Ġgene": 8789,
      "tock": 8790,
      "ĠOil": 8791,
      "Ġrac": 8792,
      "Ġlake": 8793,
      "coi": 8794,
      "Ġgeneric": 8795,
      "Ġpix": 8796,
      "Ġpocket": 8797,
      "Ġtrips": 8798,
      "Ġpace": 8799,
      "ĠSO": 8800,
      "ĠJoe": 8801,
      "Ġconstructed": 8802,
      "Ġcoloring": 8803,
      "spec": 8804,
      "Ġhosted": 8805,
      "Ġembr": 8806,
      "Ġassigned": 8807,
      "ĠSingapore": 8808,
      "ĠFac": 8809,
      "Ġaims": 8810,
      "ancer": 8811,
      "ĠIII": 8812,
      "ĠColorado": 8813,
      "ĠOx": 8814,
      "Each": 8815,
      "Ġsecondary": 8816,
      "axy": 8817,
      "GA": 8818,
      "âĪŀ": 8819,
      "Ġbacter": 8820,
      "Ġrepresentative": 8821,
      "Ġinfi": 8822,
      "Ġgentle": 8823,
      "gressive": 8824,
      "Go": 8825,
      "Ġtape": 8826,
      "coin": 8827,
      "Ġpermission": 8828,
      "isely": 8829,
      "Ġtum": 8830,
      "anted": 8831,
      "Ġcompensation": 8832,
      "Ġfocuses": 8833,
      "ona": 8834,
      "Ġmeasurements": 8835,
      "ml": 8836,
      "Ġlifetime": 8837,
      "Ġconvenience": 8838,
      "Ġunex": 8839,
      "Ġasset": 8840,
      "ĠHamilton": 8841,
      "Ġspoke": 8842,
      "ĠBi": 8843,
      "ĠSus": 8844,
      "ĠFriend": 8845,
      "ĠMain": 8846,
      "Ġparticipation": 8847,
      "Ġexport": 8848,
      "ĠMcC": 8849,
      "ĠHT": 8850,
      "Ġmodified": 8851,
      "Ġshel": 8852,
      "Ġdiseases": 8853,
      "Ġconsultation": 8854,
      "nent": 8855,
      "Ġformation": 8856,
      "ĠAutom": 8857,
      "Ġlie": 8858,
      "lass": 8859,
      "45": 8860,
      "Ġhurt": 8861,
      "ateful": 8862,
      "Ġobviously": 8863,
      "Ġlou": 8864,
      "isms": 8865,
      "ibl": 8866,
      "Ġ%,": 8867,
      "Ġfru": 8868,
      "Ġisol": 8869,
      "Ġbaking": 8870,
      "Ġfaces": 8871,
      "hri": 8872,
      "Ġmeets": 8873,
      "omy": 8874,
      "Ġvess": 8875,
      "Ġsex": 8876,
      "Ġpublication": 8877,
      "Ġstir": 8878,
      "Ġphotographs": 8879,
      "Ġpersonality": 8880,
      "Ġcater": 8881,
      "Ġexposed": 8882,
      "rts": 8883,
      "ĠMedicine": 8884,
      "atile": 8885,
      "ĠVeg": 8886,
      "ailers": 8887,
      "yers": 8888,
      "ĠDrive": 8889,
      "ystem": 8890,
      "Ġtexture": 8891,
      "enna": 8892,
      "Ġemails": 8893,
      "Ġmari": 8894,
      "Read": 8895,
      "inds": 8896,
      "ĠHoly": 8897,
      "books": 8898,
      "29": 8899,
      "eased": 8900,
      "onder": 8901,
      "Ġcertification": 8902,
      "Ġenvironments": 8903,
      "Check": 8904,
      "Ġscan": 8905,
      "kr": 8906,
      "ĠLLC": 8907,
      "Phys": 8908,
      "usti": 8909,
      "ĠFact": 8910,
      "Ġseeds": 8911,
      "fall": 8912,
      "Ġbeneficial": 8913,
      "Ind": 8914,
      "Ġwidt": 8915,
      "rolling": 8916,
      "Ġresidence": 8917,
      "Ġarg": 8918,
      "Ġcomputers": 8919,
      "ĠMos": 8920,
      "Ġnights": 8921,
      "Ġopens": 8922,
      "aki": 8923,
      "ĠBit": 8924,
      "cher": 8925,
      "ĠMountain": 8926,
      "Ġcrash": 8927,
      "Ġrepeated": 8928,
      "Ġunknown": 8929,
      "Ġspeakers": 8930,
      "Ġencouraged": 8931,
      "Ġmood": 8932,
      "Ġmaintained": 8933,
      "Ġtemplates": 8934,
      "ĠSteve": 8935,
      "Ġyoga": 8936,
      "cle": 8937,
      "Ġbedrooms": 8938,
      "cor": 8939,
      "yn": 8940,
      "scale": 8941,
      "ered": 8942,
      "RC": 8943,
      "ĠSciences": 8944,
      "Ġarrival": 8945,
      "ĠJackson": 8946,
      "vable": 8947,
      "Ġbelieves": 8948,
      "Ġmolec": 8949,
      "Ġdemands": 8950,
      "cal": 8951,
      "Ġembod": 8952,
      "Ġgym": 8953,
      "ensus": 8954,
      "ĠPRO": 8955,
      "Ġgod": 8956,
      "Ġconventional": 8957,
      "FA": 8958,
      "Ġunderstood": 8959,
      "Ġroads": 8960,
      "ĠRay": 8961,
      "Ġspark": 8962,
      "Ġera": 8963,
      "Ġexplains": 8964,
      "Ġproport": 8965,
      "ĠAB": 8966,
      "ĠFu": 8967,
      "Ġadequ": 8968,
      "ĠCook": 8969,
      "Ġexperiments": 8970,
      "ĠStation": 8971,
      "Ġlicensed": 8972,
      "ĠExpress": 8973,
      "ears": 8974,
      "Ġcotton": 8975,
      "Ġquantity": 8976,
      "Ġjudge": 8977,
      "Ġfloors": 8978,
      "Ġsignature": 8979,
      "Ġtelephone": 8980,
      "ĠSpain": 8981,
      "Ġexha": 8982,
      "ador": 8983,
      "Ġretirement": 8984,
      "sert": 8985,
      "Ġamend": 8986,
      "ĠNO": 8987,
      "Ġhaz": 8988,
      "Ġdowns": 8989,
      "áĥ": 8990,
      "Ġtre": 8991,
      "veness": 8992,
      "ĠThough": 8993,
      "Ġje": 8994,
      "Ġ900": 8995,
      "lessly": 8996,
      "ĠLas": 8997,
      "Ġclosing": 8998,
      "Ġbeds": 8999,
      "iculum": 9000,
      "ÏĢ": 9001,
      "Ġdowntown": 9002,
      "ĠDoc": 9003,
      "Ġscope": 9004,
      "Ġguaranteed": 9005,
      "Me": 9006,
      "Ġhook": 9007,
      "being": 9008,
      "irm": 9009,
      "econd": 9010,
      "Ġscores": 9011,
      "tes": 9012,
      "AND": 9013,
      "vol": 9014,
      "uan": 9015,
      "Ġdesigners": 9016,
      "Ġfalse": 9017,
      "Ġcomposition": 9018,
      "acular": 9019,
      "ĠOct": 9020,
      "utter": 9021,
      "Ġlegislation": 9022,
      "Pri": 9023,
      "arters": 9024,
      "Ġpepper": 9025,
      "Ġsurfaces": 9026,
      "ĠMu": 9027,
      "ĠSD": 9028,
      "Ġslots": 9029,
      "liament": 9030,
      "ĠLA": 9031,
      "88": 9032,
      "Îµ": 9033,
      "oons": 9034,
      "Ġfascin": 9035,
      "uum": 9036,
      "known": 9037,
      "Ġemployed": 9038,
      "amsung": 9039,
      "ĠEff": 9040,
      "ĠGeorgia": 9041,
      "Ġresponses": 9042,
      "ucky": 9043,
      "Ġdamaged": 9044,
      "Ġindicates": 9045,
      "Ġemploye": 9046,
      "Ġshouldn": 9047,
      "Ġadvantages": 9048,
      "ĠEN": 9049,
      "aches": 9050,
      "Ġfindings": 9051,
      "Ġflooring": 9052,
      "iat": 9053,
      "liances": 9054,
      "ĠCL": 9055,
      "Ġfitting": 9056,
      "Ġpolitics": 9057,
      "meras": 9058,
      "raid": 9059,
      "uba": 9060,
      "Ġfocusing": 9061,
      "ĠJac": 9062,
      "ĠProfessor": 9063,
      "ĠAsian": 9064,
      "Ġ1980": 9065,
      "Ġmold": 9066,
      "Ġcock": 9067,
      "Ġemployer": 9068,
      "ĠCra": 9069,
      "ĠFish": 9070,
      "eties": 9071,
      "Ġlocally": 9072,
      "Ġexploring": 9073,
      "Ġentering": 9074,
      "Ġbuck": 9075,
      "Ġpreparing": 9076,
      "ĠQuant": 9077,
      "QL": 9078,
      "ĠNuc": 9079,
      "ĠBrazil": 9080,
      "asi": 9081,
      "ĠMateri": 9082,
      "Ġdurable": 9083,
      "Ġranking": 9084,
      "ĠNeed": 9085,
      "Ġrout": 9086,
      "Ġinhe": 9087,
      "Ġhur": 9088,
      "Ġrib": 9089,
      "Ġtwenty": 9090,
      "Use": 9091,
      "Ġrural": 9092,
      "ĠArmy": 9093,
      "ĠLink": 9094,
      "Ġpulled": 9095,
      "Ġconj": 9096,
      "ĠJewish": 9097,
      "orda": 9098,
      "ĠTele": 9099,
      "Ġworkshops": 9100,
      "Ġbab": 9101,
      "ĠAnalysis": 9102,
      "ĠUnfortunately": 9103,
      "ĠRetrieved": 9104,
      "itative": 9105,
      "Ġtu": 9106,
      "Ġgather": 9107,
      "hro": 9108,
      "Ġcarpet": 9109,
      "Ġforgot": 9110,
      "Ġprinciple": 9111,
      "Lear": 9112,
      "Ġshirt": 9113,
      "nters": 9114,
      "ĠLimited": 9115,
      "ĠÑģ": 9116,
      "ĠSA": 9117,
      "Ġaccounting": 9118,
      "Ġestimates": 9119,
      "Ġvisitor": 9120,
      "Ġhat": 9121,
      "ieve": 9122,
      "ĠSelect": 9123,
      "ĠUnivers": 9124,
      "rif": 9125,
      "Where": 9126,
      "33": 9127,
      "Ġgrey": 9128,
      ")(": 9129,
      "Ġliterally": 9130,
      "Ġscreens": 9131,
      "Ġocean": 9132,
      "Ġdil": 9133,
      "Ġdecrease": 9134,
      "ĠCloud": 9135,
      "rus": 9136,
      "Ġdebate": 9137,
      "Ġsignals": 9138,
      "Ġtri": 9139,
      "Ġpacked": 9140,
      "Ġtens": 9141,
      "Ġrapidly": 9142,
      "itate": 9143,
      "Ġham": 9144,
      "nen": 9145,
      "Ġprompt": 9146,
      "otal": 9147,
      "ego": 9148,
      "Ġvolunteer": 9149,
      "Ġdrain": 9150,
      "ĠHappy": 9151,
      "ĠStock": 9152,
      "ĠYet": 9153,
      "Ġcalculated": 9154,
      "Ġintel": 9155,
      "ĠExc": 9156,
      "ĠChan": 9157,
      "Ġassembly": 9158,
      "ĠTit": 9159,
      "ĠKat": 9160,
      "Make": 9161,
      "ingly": 9162,
      "Ġsurve": 9163,
      "Ġfinger": 9164,
      "unicip": 9165,
      "Ġslo": 9166,
      "Ġsink": 9167,
      "Ġoccurred": 9168,
      "Ġadopted": 9169,
      "ĠVegas": 9170,
      "Ġbunch": 9171,
      "ĠDog": 9172,
      "ĠCome": 9173,
      "ĠPrint": 9174,
      "Ġinitially": 9175,
      "ĠRights": 9176,
      "days": 9177,
      "ĠSign": 9178,
      "Ġderiv": 9179,
      "Ġprime": 9180,
      "HA": 9181,
      "Ġlawyer": 9182,
      "Ġgained": 9183,
      "Ġutilize": 9184,
      "Ġconversion": 9185,
      "Ġpounds": 9186,
      "Ġquotes": 9187,
      "ĠBlo": 9188,
      "ĠWould": 9189,
      "Ġengi": 9190,
      "ĠAwards": 9191,
      "Ġalloc": 9192,
      "Fe": 9193,
      "Ġpride": 9194,
      "Ġvertical": 9195,
      "Ġkeys": 9196,
      "Ġliability": 9197,
      "Ġdisplays": 9198,
      "ĠSafety": 9199,
      "ĠMade": 9200,
      "Ġinvo": 9201,
      "acc": 9202,
      "idt": 9203,
      "Ġinitiative": 9204,
      "ĠEll": 9205,
      "Ġ130": 9206,
      "Ġengaging": 9207,
      "ĠCli": 9208,
      "ĠCree": 9209,
      "ĠDecor": 9210,
      "ĠProm": 9211,
      "Ġ160": 9212,
      "EX": 9213,
      "Ġparticles": 9214,
      "ĠEgy": 9215,
      "ĠCT": 9216,
      "Ġvoc": 9217,
      "Ġbulk": 9218,
      "ĠTR": 9219,
      "lino": 9220,
      "Ġloop": 9221,
      "Ġdrag": 9222,
      "curr": 9223,
      "ĠProducts": 9224,
      "ĠPrime": 9225,
      "elo": 9226,
      "Ġanymore": 9227,
      "Ġindicated": 9228,
      "eplace": 9229,
      "Ġskilled": 9230,
      "ĠFarm": 9231,
      "Ġda": 9232,
      "Ġceremony": 9233,
      "ĠSho": 9234,
      "Ġbehaviour": 9235,
      "Ġengines": 9236,
      "ĠQueen": 9237,
      "Ġinequ": 9238,
      "Ġweigh": 9239,
      "Ġlargely": 9240,
      "phy": 9241,
      "Ġpleasant": 9242,
      "Ġstylish": 9243,
      "bb": 9244,
      "letter": 9245,
      "Ġpackaging": 9246,
      "adium": 9247,
      "ĠRs": 9248,
      "Ġcelebration": 9249,
      "Ġensures": 9250,
      "Ġoblig": 9251,
      "issions": 9252,
      "Ġexperimental": 9253,
      "Ġnerv": 9254,
      "Ġdelivering": 9255,
      "mat": 9256,
      "Ġintegral": 9257,
      "Ġscatter": 9258,
      "ĠStandard": 9259,
      "rtainty": 9260,
      "Ġdiversity": 9261,
      "ĠCoo": 9262,
      "Amer": 9263,
      "dney": 9264,
      "Ġ1994": 9265,
      "ĠBlog": 9266,
      "Ġthes": 9267,
      "hony": 9268,
      "CP": 9269,
      "mony": 9270,
      "Ġstations": 9271,
      "Ġconcert": 9272,
      "Ġmath": 9273,
      "ĠGra": 9274,
      "Ġpainted": 9275,
      "utational": 9276,
      "Ġamen": 9277,
      "Ġdeeper": 9278,
      "Ot": 9279,
      "ultane": 9280,
      "ĠConc": 9281,
      "ĠLarge": 9282,
      "Ġhits": 9283,
      "Ġcompatible": 9284,
      "Ġcluster": 9285,
      "ĠCertific": 9286,
      "Ġspat": 9287,
      "Ġgiant": 9288,
      "Ġedited": 9289,
      "Ġoptical": 9290,
      "ĠCorporation": 9291,
      "Ġdoi": 9292,
      "Ġindoor": 9293,
      "Ġexplicit": 9294,
      "Ġflying": 9295,
      "Ġalter": 9296,
      "Ġtons": 9297,
      "udes": 9298,
      "ĠSn": 9299,
      "ĠBor": 9300,
      "ĠStudio": 9301,
      "Ġimplies": 9302,
      "Ġ350": 9303,
      "Ġinsights": 9304,
      "Ġattending": 9305,
      "Ġboards": 9306,
      "Ġcollective": 9307,
      "from": 9308,
      "Ġfiber": 9309,
      "Ġcurrency": 9310,
      "ĠâĢ³": 9311,
      "name": 9312,
      "ĠEvent": 9313,
      "orse": 9314,
      "ĠPolicy": 9315,
      "Ġalive": 9316,
      "serv": 9317,
      "inch": 9318,
      "ĠCountry": 9319,
[...]
